[PAD]
[CLS]
[SEP]
[MASK]
[UNK]
!
"
#
$
%
&
'
)
*
+
,
-
.
/
0
1
2
3
4
5
6
7
8
9
:
;
<
=
>
?
[
]
^
_
`
a
b
c
d
e
f
g
h
i
j
k
l
m
n
o
p
q
r
s
t
u
v
w
x
y
z
{
|
}
~
£
¥
«
·
¹
à
á
â
ä
ç
è
é
ê
í
ñ
ó
õ
ù
ú
û
ü
##r
##u
##x
##a
##t
##w
##l
##k
##e
##s
##m
##n
##h
##g
##3
##4
##9
##i
##p
##v
##o
##c
##d
##0
##6
##q
##7
##z
##f
##y
##b
##8
##2
##í
##1
##û
##j
##5
##è
##ñ
##ç
##é
##á
##ó
##â
##¹
##ü
##à
##ê
##ù
##ä
##ú
##õ
th
##ou
you
##er
##in
##at
the
##on
##an
to
##ing
##ll
##or
wh
##en
##es
an
##ed
it
##ow
##ar
##is
##et
##ot
##it
##om
##as
##re
in
that
##ve
##ut
##ay
and
of
he
##ere
re
what
be
we
me
ha
do
##le
##id
##st
##gh
on
##ld
is
go
##ck
sh
##ke
##se
##al
##ght
for
##im
don
kn
st
li
this
##ver
know
your
##ch
not
##ce
was
##ad
have
my
##ight
no
##ir
##ust
##ould
##ith
##ome
##am
##ant
##ent
##ee
with
can
##ill
##oo
##ur
are
##all
but
##out
##ly
ne
they
##ion
so
get
ab
##ct
did
all
just
like
##ter
##hing
about
out
##od
there
##ink
want
##ri
as
##her
##nd
got
##ea
ll
she
ch
how
if
here
su
pr
##op
up
think
at
him
##ry
##ake
##one
any
##ic
##ell
##and
##ie
##ess
ve
##pp
##ook
##ra
who
##est
wor
one
de
##un
fr
some
##ack
her
see
why
now
well
al
##ind
##ore
##il
right
going
ever
say
##us
look
##art
would
sa
##ive
##ally
man
or
##ge
tell
##ain
lo
##ard
us
pl
##ig
oh
##ist
tim
##uck
where
##ul
good
yes
se
##alk
could
when
##os
##ame
##if
gu
ex
his
##ol
##ong
ar
##ate
com
##ven
from
##ast
som
thing
##ers
##end
were
been
##ab
will
somet
##ound
time
yea
yeah
##au
##way
come
back
##ak
mean
##ob
##ear
##na
didn
sp
con
##ine
let
##our
them
##um
talk
had
br
every
##itt
tw
##ick
off
##ation
##ice
too
##thing
##own
then
than
##lf
may
car
something
##ous
am
tr
never
##ap
take
ag
##other
cl
##ose
call
le
way
fuck
##ough
does
en
mr
work
happ
##ty
need
##ort
##ody
ok
really
##fe
make
##be
over
pe
down
should
af
##ase
##ittle
qu
##ery
dr
little
more
##em
un
##oy
mo
##ought
gon
by
bl
##ace
gonna
bet
our
sure
okay
##ople
guy
said
people
mu
##ause
has
kill
int
##ber
##el
mar
bu
co
##ide
##ag
##body
two
sc
won
only
##th
maybe
##iss
##self
very
happen
##reat
und
bec
hu
##ect
hell
##oney
much
##eel
day
under
##ree
##ff
even
god
##ew
wr
year
anything
##ther
doing
sor
##lie
##ure
##ving
##ish
ask
thought
sorry
give
love
other
##ity
hel
##ies
##ite
feel
##ble
gr
##ting
fir
night
ro
##riend
new
because
##act
wa
jo
help
try
again
thank
##eep
nothing
##ip
long
##ning
into
##fore
im
##ment
find
before
sir
##wn
##ue
life
##ather
##ach
belie
after
must
ple
gir
put
still
##ich
money
rem
told
##pl
these
##ang
em
wait
po
##der
last
first
##ady
lea
##ade
around
##ass
hey
##ire
things
##ta
##ance
thr
kind
el
friend
old
kid
##ud
believe
##per
those
##iz
cr
prob
girl
cou
keep
ad
##ves
better
##ways
##age
name
sw
big
##ood
part
##pt
sm
##ool
list
always
isn
years
##get
ho
ma
boy
##day
##ence
##oss
##atch
shit
min
real
great
home
away
please
lot
hi
per
place
underst
##ved
uh
doesn
##ile
##urn
##ft
mon
ac
cour
their
miss
bad
stop
fl
##ix
ass
##ried
fa
##ise
act
##int
everything
understand
##ci
supp
listen
hand
##ouse
play
##ord
remem
care
start
##og
stay
ph
remember
##ath
##ild
three
run
sec
##ory
##ep
##ank
bus
hear
##ond
dis
##ull
wouldn
happened
wrong
id
##qu
stu
huh
##able
might
guess
dead
##iff
talking
##een
tra
##tain
cra
##atter
minut
made
show
else
mother
##man
##red
tom
leave
wom
##ious
father
house
##ful
##ater
mind
##ny
##ia
ser
course
head
mor
##aking
la
##amn
wanted
##ey
##sh
##oth
own
##pr
str
ain
done
someone
nice
##ans
##ek
##ock
res
inter
dad
getting
through
came
enough
gotta
job
yourself
sch
ins
##port
another
pro
mom
wasn
five
par
world
pret
ton
##pect
##ions
bo
##ac
##mm
##ict
left
being
fine
saw
##are
##akes
sl
week
##orr
##lem
room
ya
##itch
fucking
rec
char
hard
##ange
knew
cont
##ign
app
##nt
##iness
##dy
##erson
di
went
war
##orm
heard
meet
matter
##ary
looking
trying
comm
same
##ated
##hn
##ub
fun
##ner
which
son
che
##ever
##ple
hur
##ro
##ctor
diff
haven
seen
coming
tonight
##ife
turn
guys
four
##enty
##ph
whole
john
pretty
bre
six
##ons
bab
gl
##pen
##osed
business
pol
att
person
seem
##ars
fin
live
plan
read
fo
watch
walk
quest
cle
fam
acc
word
te
##gg
##ince
used
##ope
many
##ian
##orrow
best
har
called
ter
##leep
##ily
hour
pay
thanks
ah
found
tri
problem
inv
deal
##ible
##ndred
couldn
comp
hundred
morning
##ave
pre
##ister
most
killed
des
##my
##xt
hello
men
says
##ident
idea
chr
##av
##ually
##wh
wife
cap
ten
##ett
use
woman
##zy
stuff
next
jack
##les
sur
##ream
sit
myself
saying
far
once
dri
school
##ents
differ
bar
tomorrow
end
without
pa
sen
##orn
##ash
##ical
##ors
while
cut
bring
wonder
##ably
##ult
gi
hold
##anc
sho
few
##gether
jes
sound
pick
today
##aught
##ail
baby
yet
pres
met
ed
together
brother
ago
##ason
point
##uth
damn
child
drink
since
open
somebody
##aut
days
sleep
##anna
took
doctor
rest
##ling
##ready
fif
doll
thir
##ead
such
gone
probably
ey
already
eas
exc
aren
pri
christ
count
crazy
case
alone
eat
stand
exact
anyone
late
dec
thous
##raid
hot
half
thousand
book
wants
jesus
die
nobody
##eak
dar
ap
gun
beaut
twenty
break
##sw
unt
fig
month
check
##ouble
afraid
friends
thinking
##ng
hurt
##eet
##son
forget
anyway
##ize
high
prom
##ition
second
minute
law
interest
##air
##where
supposed
ev
##ower
cop
hope
mrs
##ib
##pe
looks
bill
mill
shot
##ost
rel
hit
young
sk
##oke
wanna
##right
exactly
soon
family
until
##ying
cause
makes
eight
face
spe
set
lost
knows
##amp
hon
##less
##unch
##ness
##cept
gen
story
ob
##fect
compl
working
minutes
bed
gra
num
##use
town
aw
fight
poss
move
##ger
##ott
true
police
##gin
married
question
##by
##ump
##ings
answ
##iful
everybody
kids
##ual
##ared
##rew
bull
frank
##ug
asked
##vel
##ating
sim
worry
gave
##az
je
##ork
godd
having
conf
ready
heart
##ither
different
pass
sometim
beautiful
bit
ear
##ations
wish
happy
actually
##ane
##ert
mur
##ah
luck
shut
alright
##iv
inf
col
sign
air
least
phone
anybody
times
##no
##ied
##ret
##ress
beh
##llow
trouble
bra
##enc
door
light
gets
trust
expl
hum
##ont
death
sy
mil
ind
dream
##ier
both
cons
hate
##ial
blood
del
##cial
##uss
hun
##ned
import
reason
each
mad
shoot
quite
pull
taking
##land
##ired
##ames
easy
ste
serious
cor
##ates
ge
star
##ely
##cc
##ins
inst
yours
close
chance
##more
whatever
fuckin
##unk
fact
send
speak
black
##vie
inc
##ird
din
##ne
det
change
making
##reet
expect
honey
##iver
eng
fire
##ens
sort
answer
##vor
##ention
dep
telling
captain
hours
water
##io
dollars
important
side
couple
goes
truth
ben
pict
##ren
disc
##outh
news
##ouch
follow
lear
mine
body
anymore
lie
buy
power
sometimes
free
##app
##ertain
##ding
##ison
##its
alm
everyone
certain
suppose
funny
sick
##uct
##ok
sex
##up
comes
against
ret
number
tried
##ime
stra
sn
forg
coll
adm
goddamn
ele
rob
sal
##ward
##olog
mess
##uc
##ton
##ley
pap
rid
dog
bud
fell
##eral
bur
sent
full
hus
later
##ped
##sy
eyes
cal
game
##ax
street
def
grand
inside
pat
##ole
##ject
though
white
reg
##orge
party
##ks
jim
##inc
##artment
##ient
##eric
ship
##ipp
pie
##led
##band
##als
touch
wind
art
secret
country
murder
pet
waiting
##pid
hands
almost
es
fifty
excuse
its
shouldn
americ
months
husband
arr
drop
means
sweet
sister
##att
lik
##hin
##aps
terri
##ude
##iet
million
cur
sing
stupid
fall
sus
pain
win
died
thirty
##00
along
women
daddy
either
##ape
conc
leg
##ush
tea
office
red
dra
##ised
finish
dinner
fil
sam
##teen
##so
record
george
##ler
##lin
city
wear
living
mag
##ator
##anger
##ters
sub
##press
##ital
beat
##ms
##aken
maj
running
drive
line
behind
sense
##side
betw
##ield
bob
mem
between
hang
##sel
##oice
##ures
##ets
unc
feeling
nat
seems
build
##ides
started
lou
alive
clean
sat
##aughter
president
##ience
ra
chang
mus
prop
boys
lady
scared
##med
##umb
bel
##ular
##shit
figure
ann
dear
##ured
seven
mid
rich
himself
gre
##vice
state
order
able
worth
perfect
ext
class
stud
clear
##ote
offic
girls
wer
safe
prof
hor
also
##dd
children
straight
ref
hair
dist
weren
##ike
bitch
test
lead
write
glad
ball
##ract
exper
##ited
trans
##ows
vis
imp
med
##cks
buck
report
##ider
small
sounds
##ten
poor
##haps
##ps
front
perhaps
bullshit
##any
complet
bank
dest
land
rad
cold
train
lau
ou
##ster
##ric
brought
##ards
surpr
dick
york
somewhere
contr
er
happens
weeks
moment
sell
outside
fool
ke
king
##aster
ow
##arth
dire
add
special
less
mist
##erv
abs
ahead
psy
ru
##aw
##ense
##ys
los
inform
psych
##ats
##ics
daughter
goin
near
##osp
ent
mary
asking
##hh
##ama
harry
shall
lose
movie
cool
fel
taken
##itting
cent
catch
favor
bother
squ
jer
##ony
dark
till
lives
##olut
promise
key
##ility
human
##ram
prot
##ubl
nick
ty
##omb
fre
hosp
nine
vi
mark
throw
possible
fast
##dle
imag
explain
mer
oper
pop
coff
wal
accident
teach
##ines
tot
past
##co
fair
##vin
cond
food
wall
company
hotel
##uce
##lly
##iting
resp
danger
##ief
bes
##ically
priv
ca
mart
fly
##ount
begin
leaving
##ior
##ced
lock
paul
picture
control
##gry
save
dress
##ship
rep
dan
tired
except
max
hospital
top
thinks
learn
piece
##room
coun
##oc
##ern
##ction
looked
##airs
miles
mich
mouth
rather
needs
super
##ale
wonderful
##ze
quick
playing
questions
lucky
dav
offer
worked
joe
disapp
pur
known
cover
words
kiss
##gan
##cent
calling
##ency
buddy
ought
laugh
publ
works
cost
dou
##oun
##erg
##ative
pleas
fix
gent
pen
##ces
##und
music
##fort
step
personal
mister
##vis
vict
mach
none
pos
##zz
doin
flo
coffee
##unt
blow
general
jud
ride
earth
##br
park
##stem
sun
##uts
carry
bag
pal
rose
system
ray
##ark
honest
##he
jeff
meeting
attack
protect
cas
drug
##bt
parents
major
destr
##igh
##ined
##amed
##ized
felt
treat
press
kidding
charlie
apartment
consider
tre
vir
##ove
##oul
meant
interested
bas
##ession
marry
##ones
cann
##ists
stick
court
mis
##ode
honor
##idence
seeing
smart
invest
david
fe
val
dem
spend
clock
tele
burn
##fer
others
strange
paper
##selves
takes
##ately
turned
cry
eh
##ants
army
##ald
##lish
information
lord
##vers
##terday
yesterday
sev
conn
invol
boss
ord
##ific
giving
besides
date
##ander
blue
ran
sid
fucked
respect
##ael
##uation
##bar
##joy
ill
##die
cloth
grow
swear
creat
worse
loved
talked
enter
become
road
smell
##ef
##ma
##bor
cops
ups
simple
absolut
lar
stri
##ift
kick
um
##iam
##ball
reach
##ided
walter
knock
fault
bor
mention
##ene
paid
certainly
bird
##ming
outta
chick
worried
aff
##lex
terrible
ir
##go
##iot
##irth
prog
happening
strong
changed
##ney
short
sol
sold
hop
pea
pack
##eth
unless
michael
bast
jew
##ues
##ik
##vern
suit
bri
##ls
pract
drunk
deep
feet
gold
prison
slow
lawy
lunch
mama
##nes
conv
given
cannot
clothes
caught
gar
tough
enjoy
rock
plane
american
uncle
jun
##oose
assh
hist
ones
handle
##ities
quit
hasn
middle
dam
fifteen
eye
brain
nor
##ged
##vious
store
##ully
##ances
private
norm
##inger
chief
bust
tick
##gr
boat
early
return
public
cab
mot
##aa
adv
##ette
destroy
jump
forty
figured
mistake
##ories
nothin
building
bucks
sher
evening
busy
lying
tur
##uff
anim
truck
comput
kept
absolutely
breat
bath
birth
##esh
twel
##ages
cross
foot
twelve
den
hid
lay
wed
neg
choice
agent
watching
trip
sand
##bers
govern
killing
peter
wel
clos
moving
appre
jimmy
base
##cri
broke
kinda
careful
fut
ring
wit
##ov
##ism
##ury
acr
##me
weird
##ently
anywhere
respons
fed
letter
quiet
longer
cat
cash
form
dev
arm
arrest
radio
imagine
upset
ell
##yn
##bo
##bed
tor
##ission
completely
involved
card
##ives
##itive
##irt
commun
situation
difference
english
##oken
liked
sil
##over
##cess
##ety
detect
bomb
loc
##ational
19
##erve
born
bott
da
fear
james
low
##old
##oup
##ments
finally
problems
mike
piss
ris
tv
##oid
##urity
club
team
third
alex
##gn
##come
##ench
##ili
space
carl
realize
service
appreci
nerv
##ume
hurry
viol
floor
history
nervous
ice
##used
afterno
box
dangerous
doubt
future
main
van
wood
##tin
##ium
island
##ilt
screw
books
esc
ble
##gar
##oud
fort
sudd
sudden
bout
wake
hall
instead
likes
afternoon
cir
##illy
calls
interesting
cig
camp
occ
sad
##oof
relax
##oint
doc
darling
obvious
proper
entire
dig
jail
green
nin
sake
##yle
fred
security
board
sitting
##ring
##uring
self
killer
finished
officer
circ
fat
neigh
discuss
machine
dance
rom
##ping
station
##urs
visit
peace
ce
dun
gee
ver
wow
##ray
##orth
johnny
glass
message
hmm
lad
##urch
##ulous
steal
ted
##uke
church
cla
stopped
possib
natur
jake
table
##ots
allow
eddie
belong
across
cam
lim
opp
prod
needed
roll
post
ger
tem
impress
staying
account
pictures
dude
##te
##idge
##stairs
wrote
age
bought
bunch
fish
##ina
##rey
spl
##lfriend
missed
decided
totally
mod
west
##ounds
girlfriend
accept
colle
window
owe
direct
welcome
##iter
emp
picked
horse
disappear
cook
connect
hom
tape
##ugg
##imin
goodby
somethin
contin
evil
asshole
fol
hy
##lo
##cut
shop
college
fill
san
##fully
##ened
join
lots
lawyer
heal
mac
goodbye
cast
tast
##mit
##atic
requ
gotten
forgive
bastard
witness
##aven
weap
missing
present
hungry
investig
cong
eve
est
south
##mas
##ogra
contact
apolog
appreciate
cigar
cow
##nie
##ino
##ills
suck
amaz
hardly
##avy
fur
sugg
##onel
equ
##etic
##ices
william
partic
prep
computer
av
russ
sett
voice
wild
##etch
enem
holy
dumb
field
gard
hide
soul
##night
##key
lived
french
phil
deliver
address
master
named
##oon
threat
##ann
force
##pped
##view
calm
cell
##bi
usually
prove
christmas
wearing
pard
##uel
moved
corre
kar
##how
##form
ange
saved
price
forgot
elect
louis
program
government
##to
##une
quar
awful
suspect
dying
##ky
##pin
##iment
##cially
appear
color
department
papers
suggest
##ru
heaven
hero
driving
##ana
fail
charge
billy
single
roy
##king
nose
##aine
marri
putting
standing
surprise
hook
##eng
princ
##ules
hadn
ground
smoke
phot
phys
mas
mir
##ination
##ica
sail
crime
imposs
gas
lab
ant
##arch
track
defin
##ipped
bow
##ham
##ester
whose
##ai
##gu
##ether
suff
load
idiot
diffic
##uthor
##vision
cre
song
##uten
const
listening
##mmer
appro
farm
sens
colonel
draw
impossible
yell
##work
##ians
##friend
attention
terr
lieuten
band
##ature
neck
loves
mov
##ogn
gives
push
##bit
##ico
percent
##aces
reading
obs
surprised
movies
joke
recogn
surv
fit
hol
pot
sea
##ruct
boyfriend
##cious
dollar
relation
##attle
extra
birthday
pardon
correct
lieutenant
cust
round
##bb
##ute
beer
##iday
share
stuck
wash
using
spir
starting
divor
dreams
pleasure
detective
dat
pray
bro
ways
walked
promised
spec
type
drugs
wedding
clar
blame
paris
command
film
experience
normal
folks
aud
hen
mc
rick
whether
beach
neither
guest
comfort
level
block
earl
records
beginning
sheriff
neighbor
tal
fright
##ify
##ified
walking
ridic
america
judge
jul
names
vac
##gue
##owers
##ille
fired
charles
brothers
admit
civ
notice
twice
closed
writing
partner
##lemen
depend
code
during
gh
mitch
rain
##hood
##vy
##bur
thom
##ering
##icide
##ished
group
mission
wondering
admir
jerry
pin
shar
asleep
tells
##aged
difficult
##uit
##cy
##uty
##ston
cred
smok
seemed
trick
memory
gift
nuts
plenty
guard
exam
talkin
broken
crash
polit
guns
seconds
evidence
fighting
fellow
orders
##ograph
relationship
rub
tar
##boy
exp
##aked
crap
planet
tech
##pecially
especially
marriage
ridiculous
mmm
tight
tap
##por
washing
spent
bye
##ager
cute
martin
amazing
silly
##ted
franc
exce
moon
##pens
holding
position
camer
aut
cup
dor
rent
river
##zen
wheel
inno
beg
##iew
##place
dump
lam
##ius
##fuck
##bs
##otion
##iced
##astic
jean
feed
particular
lee
loose
port
sle
tow
exist
##aud
betty
intr
acting
bat
fbi
view
##ron
##la
##nal
##den
intell
ide
travel
skin
collect
definite
pan
pil
##par
forever
scream
decis
file
ju
north
tear
##ka
##ners
##itor
mel
##ries
plans
buzz
host
faith
yah
sleeping
mal
pig
tax
##rop
##ese
within
butt
##esty
arri
keeps
weekend
pulled
gentlemen
egg
##lor
##fast
ther
##oop
lovely
hole
detail
patient
victim
double
finger
gri
ori
sar
##enny
bear
mex
note
proud
search
##ended
brown
remind
##ploy
crimin
contract
breakfast
nature
condition
fant
##que
often
stories
worst
##els
grant
sym
animal
jan
jam
nur
##iny
heavy
organ
meaning
bridge
clim
swim
support
crack
sixty
grace
seriously
rules
queen
played
bobby
odd
rout
##men
angry
##ung
desert
bathroom
danc
##ez
andy
univer
feels
embar
tommy
##while
##ancy
##ology
health
opin
ital
rece
area
champ
##iforn
cock
scene
feelings
attract
californ
##row
iss
shock
##ires
gettin
succ
ourselves
##bert
##ips
advice
##ption
harm
object
terrif
seventy
civil
000
author
bal
crew
games
lang
##min
##here
##cer
repr
summer
spot
agree
##ints
washington
nurse
page
##eg
##pap
##ishing
##read
stole
##ada
chea
##icated
places
##ender
built
perform
learned
henry
california
cree
dir
ef
mass
##kes
##eech
plus
blind
event
murdered
concer
##heart
bod
du
##rass
##ges
##iant
##of
##ford
##isf
bell
insane
profession
complete
gentle
television
split
innocent
dirty
effect
ber
ly
match
##ises
##ution
onto
agre
leon
immed
keeping
assist
committ
medical
jeffrey
##ength
techn
embarrass
coo
gim
rand
yo
##wood
##light
##itude
arch
bruce
charact
gener
profess
hiding
immedi
##rick
herself
##itten
showed
project
pretend
##ences
majesty
keys
risk
apologize
jour
mix
rough
##ye
lic
willing
##ument
robert
favorite
empty
enemy
definitely
success
tit
##line
##gas
knowing
speech
##oyd
senator
lately
simp
study
custom
ghost
credit
pu
##ral
##eed
##ging
##ero
##enn
weather
##urance
cha
upstairs
##olf
convers
scar
laur
##acy
warm
following
las
lind
nig
##ena
stock
necess
amb
marsh
holly
flight
teeth
drinking
speed
shooting
incred
subject
marty
settle
dave
rome
##let
##ki
##ss
##za
##field
##amin
soft
brad
scr
craw
trial
prec
apart
copy
horri
losing
danie
due
luc
rap
tree
##wise
##yond
##ano
beyond
##ste
stan
states
##enth
##elly
pock
crow
paying
##ettes
shoes
curious
richard
training
##ountain
ticket
devil
obviously
ug
vide
weak
waste
somehow
client
emerg
smith
greatest
ident
interview
harold
eating
newspap
dropped
magic
introd
origin
path
sant
wine
##aff
decide
grab
fella
sweetheart
hanging
satisf
victor
chicken
responsible
suddenly
taste
spirit
admiral
pool
##rat
##iat
whoa
letters
brand
cars
action
heads
corner
locked
##iliar
claim
opinion
concerned
professor
##ration
##itz
stone
##icle
##otten
virgin
excell
cous
fle
hat
tie
taught
ur
##omm
switch
motherfuck
common
famous
familiar
prefer
airport
incl
legs
purp
possibly
##stein
ban
bond
rat
ram
##ker
thou
sund
##oph
themselves
##ortun
scott
swe
numbers
opportun
data
thomas
cheap
gang
gord
ol
size
##town
##val
##cus
##oned
lied
lloyd
seat
##achel
turns
raise
german
intellig
30
ign
##iest
ang
##arm
ash
chair
sugar
proof
##ulations
grad
##ization
monster
runs
mommy
##wards
magaz
gimme
simply
cy
lone
ros
sight
##aur
##lu
##eter
##ased
##alous
forward
dont
##ula
comb
tru
scare
helped
career
commander
desk
susp
satur
boo
dry
gal
vol
##ening
held
lift
##antic
deg
comin
spoke
bright
##othy
##velop
natural
further
dom
rum
sour
ven
wound
##head
noticed
suicide
##usion
science
insurance
personally
mostly
checked
sooner
complain
request
character
saturday
duty
fem
##ville
##da
haw
##ils
arms
bigger
prov
design
excited
##ibility
large
afford
junior
repres
horrible
borrow
jason
kay
mick
mcc
nail
pants
##mission
##ered
ham
fore
vegas
lookin
bug
scient
nightm
employ
adam
attorn
jealous
drag
director
freak
breath
decision
bon
ry
heat
stat
##icious
claud
otherwise
laid
appar
descri
passed
annie
ugly
sunday
attorney
hors
hired
mountain
oil
rip
tour
wil
##imate
stars
fresh
sport
starts
shows
##iction
lights
hunt
eleven
regular
quickly
norman
dunno
vacation
dorothy
ideas
emergency
lonely
10
cit
eur
jac
rab
rele
sever
expens
arg
sword
doctors
sales
distur
escape
property
ladies
recognize
conversation
eth
row
##oming
##asons
weight
access
discover
snow
perfectly
leads
busted
bottle
immediately
aust
aunt
kitch
mut
pounds
wise
##mer
whoever
develop
##istic
helping
accord
milit
madame
speaking
sneak
dogs
arrange
concern
broad
talent
cousin
kitchen
fan
gam
gall
jos
lake
lond
lines
mood
sin
til
##house
##eds
##ites
storm
upon
friday
brit
everywhere
##ago
deserve
driver
beauty
goddam
england
rule
mentioned
##ground
weapons
congrat
quarter
francis
langu
bodies
license
gordon
bay
ken
mm
##well
##inary
##orter
rev
repe
shr
liar
soci
##ication
plant
sees
trade
energ
scri
joey
remain
mail
matters
planning
##uction
crying
blew
comfortable
mexico
london
nar
nah
ye
##ts
##time
##ya
##ored
whis
stom
##lyn
##rage
##ilty
guilty
scot
commission
johnson
watched
answers
expected
total
hoping
criminal
corn
kr
luke
national
##ores
##sey
justice
##using
exe
##earch
eighteen
market
bottom
pissed
terrific
purpose
11
bite
dise
ms
non
##ued
##af
##gest
##ien
itself
react
##ality
nope
##elle
usual
cares
became
strength
pregn
damned
eighty
practice
garden
truly
citiz
east
faster
kir
patter
threw
##inct
##ato
##asy
##ches
##ades
nowhere
drove
imm
poison
assign
stayed
hearing
secretary
extre
ruin
disappoint
positive
carrying
local
cele
approach
gentleman
pocket
europe
18
awhile
corr
cream
pun
##nel
theory
social
##icate
bringing
milk
engine
pressure
opportunity
celebr
bum
cards
mat
mob
nic
vill
##nin
##ga
##bly
tooth
whom
##ids
stew
chop
manager
##akin
spare
brill
buff
written
nights
##gging
pair
sky
grave
expecting
loud
square
teacher
##board
camera
wire
witch
##iers
##ived
##bing
##ising
##asc
##tern
sue
##uses
plain
separ
express
##oles
united
believed
leaves
elaine
research
surr
sometime
benj
susan
center
danny
naturally
energy
script
execut
ears
gay
mall
net
tall
zero
##asing
##asion
##ida
##essed
whenever
unh
thro
opened
indian
followed
pete
magn
dressed
teleph
allowed
smoking
cooper
battle
fund
tun
##ees
##gen
##ita
reasons
meat
chic
depress
writer
older
assume
serge
jacket
bedroom
aware
sexual
files
balls
larry
damage
federal
russian
frightened
daniel
sna
##ients
##iner
##cha
above
##icy
spock
enc
quot
surely
##ache
##anged
emotion
shower
serve
appoint
tex
easier
bloody
operation
birds
animals
continue
incredible
20
ment
map
nut
##tor
heh
reck
ate
log
spring
cole
hild
bullet
brains
indeed
burned
sidney
destroyed
closer
fortune
weapon
physical
necessary
sergeant
aye
ba
cart
cos
jon
jose
jane
wet
##tle
##back
chap
biggest
flat
inspect
##roll
pieces
refer
flying
county
neighborhood
includ
represent
apparently
according
pattern
benjamin
bare
cub
tip
##kins
##con
##bon
##erm
shame
shirt
butter
however
##itty
carp
blank
thoughts
tryin
player
serv
##gged
restaur
powerful
jerk
silver
terror
divorce
mitchell
video
mickey
pure
punch
##sie
##gy
##iod
##cle
##case
thy
thurs
chem
##osition
##ending
ours
disg
funeral
awake
legal
turning
princess
ryan
stomach
bern
naw
ot
oce
pills
vall
##ev
##pir
##father
anal
##itions
##unce
among
period
activ
plays
sonny
picking
defense
psychiat
century
responsibility
target
issue
hollywood
excellent
magazine
congratulations
thursday
hill
jab
kane
lap
rod
ta
##rant
##gers
##imp
staff
chain
alb
goodnight
##ement
blond
flowers
trap
recall
babe
behav
streets
##ipper
##fortun
boring
arrested
investigation
cigarettes
mirac
linda
crowd
language
disease
throat
bones
fi
junk
jury
led
dozen
##cker
stink
cancer
##ural
print
saving
letting
unfortun
falling
freed
british
hildy
jap
lis
nap
pow
pump
tay
##uh
##uz
##iation
knife
alan
manage
loy
leo
##empt
unus
buying
##izing
strang
breaking
final
desper
simone
signal
forgotten
buried
##under
enterpr
strike
prepared
earlier
tapes
eggs
professional
chicago
dish
hm
hated
mater
pers
##ha
youre
##itation
##stand
##ilities
##aker
unl
understood
flor
accom
baron
nearly
laughing
virus
pink
pear
ren
vul
vamp
yep
##ture
##nn
##oci
##bage
##eding
shield
shift
chest
someplace
tellin
guar
lemm
margo
##ffic
joint
waited
maid
process
##aced
##etti
surf
laws
signed
changes
illeg
practically
negot
baseball
disappeared
italian
society
taylor
unusual
mort
naked
pee
rh
##ex
##mon
##zo
##yl
inj
shape
choose
##ateful
trad
beth
coat
huge
kidna
swell
associ
tony
charming
confir
steve
##ipping
woods
connection
cowboy
mask
brilliant
loyal
guarant
15
fab
jess
##ket
##gie
theo
doors
shark
knight
spell
unf
moves
disp
recomm
clever
ended
brings
sending
riding
concent
selling
##olution
typ
cabin
williams
depends
pilot
dancing
pregnant
joseph
lemme
cath
dust
pill
rate
roof
rachel
sally
var
wade
##rate
##oil
##ona
toward
whore
anna
stab
lif
lies
prim
##ications
saf
##ulation
seal
talks
trunk
downstairs
unif
finds
emper
##mmmm
instruct
elev
robin
sisters
ordered
##inese
sevent
hyp
royal
sailor
slept
motherfucker
military
cult
fal
nerve
pian
rush
##ror
##uv
##ule
whad
##reen
stol
noise
loan
##ipe
parts
smile
holl
headed
attitude
invite
dealing
opening
##ledge
fixed
brief
garage
negative
ellie
clarence
assistant
behavior
enterprise
uniform
emperor
lat
math
ox
rare
##res
##ym
rever
##pping
lect
grown
firm
trail
sched
pulling
clearly
transfer
##rica
steph
equip
angel
yellow
committee
several
ocean
japan
dum
dign
fing
fake
##eal
##off
##ders
##down
thor
thief
##ini
##ining
##ators
##lect
chinese
spread
impr
monday
rooms
relig
artist
opera
hmmm
survive
details
newspaper
telephone
restaurant
12
nons
tues
yard
##oved
##ceed
cho
chat
rights
##ulate
##asty
##umst
amy
downtown
reality
carefully
heading
commit
ends
thousands
complicated
confused
corpor
##ension
touched
member
expert
covered
soldier
screaming
arrived
horses
freedom
tuesday
dent
gain
hates
kelly
pier
ron
sed
tong
tab
tank
tail
wolf
##lt
##iber
##ox
##bling
##otic
##rel
cance
thinkin
deb
france
clay
partners
fac
##athan
showing
result
jobs
sixteen
planned
terry
jackie
##ashed
##ashion
decent
midnight
progress
cigarette
avoid
audience
fantastic
journal
jacqu
repeat
seventeen
equipment
nonsense
cents
fried
vice
wend
##ux
##ele
##ses
theater
##esar
style
wasting
likely
##ila
amount
coast
##agne
grade
actor
slight
diam
invited
compet
wondered
millions
##ological
burning
created
creature
entertain
##aaaa
ninet
romantic
princip
sarah
original
material
dare
fasc
naz
rail
sie
##cl
##for
shhh
liqu
##vert
##cher
##eez
##urt
##itted
clark
uns
##eline
score
finding
understanding
insist
terms
##swald
incident
defend
regret
banks
occur
agreed
santa
extrem
jabez
diamond
dirt
fashion
gate
les
mile
oswald
pir
wes
##vent
reed
whatta
beau
liz
lips
sayin
spoken
##bel
monsie
acqu
##iac
fourteen
##phy
desire
drinks
passing
##ologist
##ucle
falls
official
experiment
lesson
ruined
caesar
kicked
solid
occasion
circumst
product
karl
anti
divorced
scratch
female
kenned
stolen
monsieur
bang
fancy
gig
guts
hire
lous
por
##oll
##anz
##ential
chances
armed
grateful
roger
friendly
permission
intern
##gger
priest
frankly
curr
growing
smells
affair
hidden
electric
create
therap
univers
title
intelligence
nightmare
kennedy
ep
jones
lor
pant
range
##agh
##ware
##lies
##nis
##ige
##can
##eday
##oms
web
deck
sean
someday
##abitch
##ouses
betray
##eless
##ague
underw
impl
poet
mont
insult
policy
famil
meth
bills
passion
influ
##uced
squad
oughta
pleased
garbage
belongs
castle
photograph
route
foreign
expensive
texas
bound
bax
cher
cyn
dim
fer
fought
puss
woke
##mont
##fle
##asure
##reau
##rie
prince
fro
alarm
##iles
mayor
carter
agency
emb
realized
assum
barn
edge
younger
confidence
humor
learning
central
##ocol
honestly
attacked
value
temper
model
universe
champagne
mixed
lousy
baxter
25
hay
hoo
joy
mack
nun
opt
wy
##gl
##ij
##reck
##utation
reward
##stone
gosh
dece
##iling
##olic
bureau
coke
##agon
male
flesh
attempt
term
prior
##nold
brave
hung
steven
staring
patrick
loser
psycho
counsel
offered
demand
knocked
tickets
glasses
congress
avail
##rupt
victims
performance
introduce
francisco
citizen
valley
negoti
safety
piano
fingers
extremely
families
100
dies
mul
nasty
nucle
##wich
##mond
##oe
##oot
##erves
theat
##itution
sha
##verage
soph
chall
twist
fucker
eliz
resc
##road
jesse
##ival
facts
secrets
wallet
impressed
guests
pupp
chaunce
romeo
appointment
reckon
illegal
chauncey
gab
gear
miam
rack
rig
wid
##ris
##ault
##kin
##eer
##sa
##ially
##ios
reven
doyle
shad
knowledge
##oooo
aband
china
##rap
##ushing
wherever
##osc
kills
hud
badly
reserv
sonof
exciting
frankie
hunting
singing
winter
statement
distance
nicky
trees
bored
claire
gardiner
tower
sweat
disgust
miracle
tongue
available
miami
50
ast
duck
fishing
grew
hob
matt
nurs
pad
peel
piz
porn
##cil
##bles
##ara
hal
##seum
forced
stood
stamp
##rib
cloud
unit
trace
stretch
resist
cheese
desp
cutting
shoe
checking
genius
steady
benef
grandfather
regard
murderer
reputation
counter
casino
miser
border
motel
breathe
##ovich
screwed
ninety
panic
attractive
authority
unhapp
emotional
including
bart
bible
boun
fra
fag
kath
na
pour
powers
##lig
##ca
toby
##enna
stage
liber
libr
##che
##antage
##aint
section
spoil
moz
##agn
##thy
gray
flash
phill
craig
series
appl
commer
invent
metal
signs
explan
paint
painting
medic
destiny
demon
breathing
escap
##load
example
odds
satisfied
discovered
bail
cake
dil
dip
mum
race
tied
ward
wander
##mother
##iving
##vard
##oard
##cul
toil
toss
whack
##esa
##rees
dope
##ado
novel
##enture
aboard
wanting
##ril
##rict
shel
cham
chew
chann
veh
goodness
season
comr
##abeth
spook
shoulda
drown
intend
scary
##atherine
crit
fourth
confer
confident
##ivid
explos
windows
student
popular
penny
motor
deny
##ropri
climb
nineteen
circumstances
nuclear
elizabeth
cad
eff
kim
mere
pitch
vinc
vada
##de
##atory
thee
anx
anne
##arily
##oted
repl
##sters
##ante
shelly
anyhow
fruit
lob
##ability
museum
kidd
swing
parties
fav
boom
recently
recover
babies
edward
educ
##ception
##ensive
bothering
reporter
spending
jews
lawyers
community
possibility
filled
russia
loaded
construct
holiday
political
autom
nigger
source
batter
cert
fate
ii
liter
os
patch
vers
viet
##dom
##dia
##isc
beam
meal
##ador
##oops
##allow
neil
aside
sheld
chasing
howard
##uman
agnes
minister
monkey
##ansas
boston
apple
finan
walks
termin
preach
capable
easily
standard
miller
bullets
confess
reasonable
determ
engaged
register
terribly
louise
cleaning
studio
throwing
bags
cases
considered
ranch
soldiers
convinc
sandwich
impression
empire
karen
jeanne
routine
creep
lydia
inspector
blonde
lisa
desperate
accompl
guarantee
jessica
recommend
sonofabitch
mozart
cure
horr
nation
rib
tag
tits
ves
##zing
##bery
thin
##sty
##imony
lip
##illed
##rian
chin
##ican
alice
alth
albert
##ucker
##ols
##uments
affect
qual
mole
helen
thrown
adj
traffic
cheer
tricks
chriss
diego
hurts
murders
admire
members
changing
conduct
walls
purs
enemies
ricky
pathetic
ashamed
rabbit
release
barely
psychiatr
unhappy
medicine
60
aven
bun
bert
cav
cats
diss
diz
kat
link
lack
lomb
lenny
mic
nix
pist
vo
wing
##rog
##iar
##ique
##erved
##kee
##ales
cand
pred
pros
dew
brook
offense
coinc
mustn
kinds
cru
courage
serial
launch
harder
##ggy
capital
barry
points
hits
starfle
bury
memories
respond
misery
football
stealing
appears
failure
particularly
eventually
separate
pearl
starfleet
dea
et
gale
hes
ku
lun
punk
tiny
vit
zoo
##ties
##lus
##gun
##oh
thel
##edy
knees
##istry
exch
contain
trou
union
blast
puts
##ples
crush
flatter
##quir
strugg
##icted
bread
trusted
madam
##apped
susie
experi
dickie
foolish
direction
caused
superman
based
##nesday
convince
wednesday
ellen
constant
sensitive
swimming
jacqueline
pussy
explanation
##ropriate
although
lombard
14
catherine
der
drew
hanna
jeez
kent
nathan
teen
umm
wide
wreck
##uate
##eb
##mp
##bl
##erc
##anie
##ares
##uther
relie
review
shake
##imes
candy
outf
##rier
suits
##iece
frances
sale
orange
conce
lets
workin
unbe
blah
screen
becoming
assass
remembered
morph
owns
proced
warning
focus
thirteen
prick
interests
setting
##azz
dreaming
starling
americans
below
greg
officers
vision
machines
systems
virt
jewel
brian
assholes
advantage
basement
alexander
veron
produc
sharp
janet
ghosts
laura
claudia
disturb
josh
shrink
narc
kirk
false
revenge
miserable
bone
ped
pic
rag
wick
##gain
##vable
##cra
##reg
init
infect
reh
beast
stake
myst
chocol
shoulder
smo
warn
shots
grandma
handsome
curse
winning
tests
loss
valu
philos
angeles
##burg
politics
jamie
successful
argument
ethan
village
florida
robinson
frozen
effort
ach
ded
dud
duke
gather
lit
lower
lester
pound
pac
rif
tent
tub
vote
##ww
##we
##nam
##hip
##pher
##oom
##caine
thumb
##eration
##atives
##itute
##ases
rex
whats
bein
habit
doe
button
##anda
##uls
##icks
clin
cocaine
image
badge
minds
served
hurting
ahh
bargain
fifth
skip
passport
humili
individ
robbed
budd
fully
arranged
cleaned
refuse
transport
pleasant
iron
stronger
jewish
tempor
directly
mirror
##bbie
instructions
schedule
wendy
university
toilet
conference
veronica
cage
dime
fart
gut
houses
ira
jet
kurt
rope
soup
tu
tas
tend
##rated
##aid
##kn
##ktor
##ygen
##book
##omes
inch
andrew
myster
##ella
wore
worm
debbie
##ilar
sacri
lois
lover
plate
coulda
##ittin
wayne
march
marvel
trave
stroke
charley
warri
surge
holds
##anced
possession
movement
snake
sweetie
viktor
counting
doug
parking
considering
trem
basic
burns
dawn
dunbar
shopping
prepare
labor
##estern
juice
healthy
embarrassing
ambass
ignor
describe
otis
unfortunately
oxygen
fascin
financial
vessel
cere
eric
ned
navy
rot
ut
##path
##fred
##bows
thick
whist
##oma
replace
began
beef
hack
golf
##ader
##illa
neat
sheila
##ops
atl
fran
loving
##ulse
exerc
clown
blown
marcus
##pert
cruel
minor
faces
##cient
struck
stranger
paran
recon
senior
graham
policeman
##enced
engage
trained
ordinary
jumped
violence
bowling
suffering
tears
objection
degrees
chocolate
smooth
bree
cable
cia
horn
ni
pity
##isher
beck
##lder
ford
stones
##chan
##iring
chase
chip
##pper
##ifer
guards
conven
bride
underground
league
lotta
slip
charges
div
attend
fox
higher
instinct
ships
parker
basically
misunder
reached
package
slowly
bleeding
witnesses
delivery
journey
customers
suspicious
tunnel
carpent
services
elevator
influence
theatre
challen
psychiatrist
thelma
sacrif
ambassador
13
bour
cob
jill
kin
kil
kansas
oak
pit
sore
wig
zone
##rake
##worth
##mber
##iable
##bled
##inting
##onse
toy
##aring
##ota
##omp
##vey
heck
heather
forest
steak
stairs
notes
##odes
alter
sav
sac
plastic
carried
cliff
worker
scan
scen
cris
assure
##plex
##onscious
chris
barbar
senate
giant
stands
promotion
compliment
depos
sexy
goddamnit
grandmother
patients
article
leader
leading
kevin
bothered
basket
closing
elliot
location
occup
failed
committed
snap
wyatt
unbelie
mystery
valuable
21
cott
dy
dall
dough
fuel
gitt
han
hills
lyn
mck
roth
rac
ult
wat
##rance
##rison
##li
##mo
##reak
mechan
stiff
noble
##aming
##outs
alco
##ulf
##osing
truman
agents
clue
africa
drum
intent
intention
marks
gods
gross
crook
flag
supper
##epend
##quis
proceed
johnnie
surg
darlin
highly
lawson
events
shotgun
salv
personality
palm
entirely
freddie
neighb
collection
virginia
provide
claude
revolution
assignment
tradition
japanese
method
rescue
escaped
convinced
adjust
exchange
jewelry
individual
gittes
aim
average
bars
bump
cave
dating
fee
gary
hood
hitting
mant
mig
mason
makin
tan
##rit
ancient
##etta
thats
shore
shakes
forces
##illing
ability
suz
##esth
dean
device
deeds
herr
alien
manner
sem
exit
agg
clo
env
##agger
##bley
wave
jokes
helps
##play
stops
actress
headache
##prints
diane
warrant
capt
decl
##ugs
independ
instance
deputy
goddamned
satan
distract
testify
begins
palace
treating
treated
##ification
estate
lampert
sympath
newspapers
degree
network
chemical
railroad
horror
avenue
hannah
outfit
dallas
alcoh
17
24
40
45
core
ease
gest
nest
nik
sink
##xx
##wray
##moon
##gle
##erick
##esis
##rell
##ays
haul
shown
##verly
shell
sheets
chart
chuck
woulda
sew
spin
happiness
bless
asks
supply
supplies
mighty
trapped
struct
boots
planes
pays
trib
dealer
hundreds
prevent
useful
barnes
skull
confession
honeymoon
laund
psychic
marylin
teaching
maxine
costs
protection
turkey
sandy
fortun
teddy
homicide
estab
delivered
holes
julie
taxi
intelligent
austin
surrender
lifet
dignan
sieu
therapy
webster
mulwray
hudson
pizza
library
commercial
iraq
marvelous
paranoid
22
cant
duff
hust
jenny
jenn
mate
nort
oz
puff
rank
ruth
sire
tig
wings
western
yards
##gs
##ois
##bid
##otch
stor
lick
##adem
##eeze
soap
##ician
##essa
seek
altern
##umn
mars
becomes
joking
believes
musta
remark
swallow
flies
interf
glenn
prize
checks
indust
patri
subst
announ
testimony
reports
radiation
jersey
darkness
privile
protecting
strict
golden
enjoyed
negro
governor
former
silence
mikey
geez
impressive
coward
colored
bowl
received
champion
precise
lucy
designed
reaction
mental
surface
shadow
chamber
coincidence
rifle
unbelievable
cotton
jennifer
aid
bi
bul
bol
bald
cri
dee
fri
lung
mam
rud
tam
wad
##rand
##uary
##mar
##hib
##van
##bits
##oura
##erk
##org
##aries
inn
beverly
##idate
steel
alvy
##osa
##ears
didnt
spect
everyday
trash
##eman
marge
rocks
##ached
waitress
poem
homework
monitor
academ
flow
fletch
actual
moral
owner
parad
warned
##ggin
harvard
prem
sounded
billion
oblig
worrying
answered
robbery
sentence
films
uncom
belt
profit
tyler
strip
bastards
computers
torture
discussion
cells
suffer
washed
specific
juliet
symb
cockta
crawford
salesman
remains
loyalty
channel
pistol
200
dull
fever
gus
il
jen
lula
ooo
pent
poo
pages
tatt
##ua
##walk
##hold
##gent
##vest
##dra
##yard
anth
##itory
##itlin
reb
dod
##ckey
forth
outa
wanta
sucks
##opard
##race
debt
plat
##osen
##osite
exists
argue
compr
complex
spy
span
lex
##bels
pean
unp
scra
grass
adult
flower
##ordin
mornin
internal
schem
boot
boats
glor
trigger
compan
##anca
presence
editor
breaks
figures
signature
delight
instant
admin
salt
burgl
satell
beside
caitlin
dana
treatment
investment
democ
crossed
document
freddy
limit
homer
threatened
appearance
photo
species
dumped
italy
berlin
embarrassed
angle
volunt
wounded
scotch
analy
strangers
##force
occurred
underwear
disgusting
vehicle
confidential
vincent
construction
neighbors
aug
cu
dw
hou
hank
kit
lu
malk
pony
rise
rude
rape
tone
vin
von
vick
##uits
##ec
##nat
##pa
item
##itar
##omic
weal
dool
##sem
##ura
chee
chosen
##icing
frame
hers
managed
##igan
sector
background
spr
cared
tran
##thia
askin
grady
firing
asses
bush
##quar
moron
slaughter
tries
precious
eaten
hearts
delay
retire
salad
touching
raised
students
dickson
mistakes
response
locker
##unders
casual
treasure
solution
suitcase
federation
properly
connected
sucker
effects
fleet
statue
mountains
ripley
surround
executive
vulcan
##uva
religious
cancel
beaumont
cynthia
brooklyn
philosoph
carpenter
malkovich
bid
hatch
kate
lt
rings
raz
tut
takin
yup
##egr
##jack
##ashing
height
##str
##sequ
##uries
##hern
atm
##ryn
##icles
saint
gum
spar
##ously
enorm
##ortion
blade
helluva
feelin
flu
##cience
resign
slave
appropriate
diet
wars
warren
##roit
harbor
tripp
edie
related
grail
##otted
column
detroit
fellas
patience
singer
##lines
district
steps
creatures
packed
june
dammit
196
modern
settled
threatening
prayer
existence
granted
stanley
germans
disappointed
reverend
pirate
counselor
abandoned
lunatic
buddies
##known
establish
lifetime
fry
fence
hitch
hump
luther
nam
pas
rang
tact
wis
yess
##xual
##low
##ked
##oes
##oves
##cing
##col
##onn
##esp
anger
beating
##iments
therefore
chill
prints
alph
alfred
manh
orch
##oses
##osal
arth
##abl
willie
##augh
spit
concept
unknown
killers
cocks
##aging
poll
elvis
phony
schw
appeal
breast
glory
invis
pale
highway
evan
conscience
deliber
incre
collar
messed
concert
subs
media
lessons
mercy
offering
kissing
##fortable
valent
teleg
cryst
ordell
affairs
hoped
advance
adventure
closet
campa
##guard
pushed
julia
hawk
bugs
scientists
nightmares
sports
depressed
unlike
vampire
fabulous
loretta
widow
reservation
benefit
comrade
uncomfortable
16
35
500
bog
cuz
dut
dill
gorge
ian
ja
jus
nan
om
oct
sack
site
vig
vince
##rase
##away
##eus
##gment
##pson
##cr
##cast
##cile
##zer
bee
shaw
##imum
nell
sov
chim
sup
ath
##rael
sab
saunders
##osph
arnold
clients
units
bluff
coordin
scale
joined
belief
remove
assault
stress
parole
function
polite
foley
sits
givin
april
skipper
fighter
brace
dreamed
freeze
freezing
straw
patr
ess
filthy
buildings
raw
grey
lands
ouch
##hhh
victory
casabl
meantime
prisoner
convent
returned
continued
quarters
farmer
extraord
thompson
lamb
fantasy
technical
technology
scientist
expenses
##standing
shields
concentrate
culture
stephen
choices
principal
current
critic
anxious
preacher
molec
warrior
barbara
cripp
doolittle
campaign
casablanca
bachel
dna
dyn
furn
greet
kram
moss
mult
nu
ny
oath
rust
ripped
tune
##uated
##vo
##era
##ingo
##ora
##enger
inse
inject
weir
##leans
shaking
knee
##irs
alley
prose
orleans
timing
##ucky
##ables
##apt
mud
##action
imper
coupl
swore
stopping
listened
handed
dism
charged
christian
grav
earn
synd
factory
deton
retired
##attan
fallen
legit
legend
unconscious
offices
profile
entit
frequ
walt
exception
council
kissed
laughs
solve
trucks
communist
violent
opposite
##uggie
tastes
creasy
potential
organization
agreement
pretending
identify
introduced
ignore
whisper
whiskey
bernstein
powder
vampires
corporate
liquor
poetry
gabri
racket
education
dewey
task
mysterious
exercise
crisis
storage
invisible
gorgeous
kramer
00
ace
auggie
cem
fog
hint
jur
jazz
mau
mosc
nerves
pip
ross
tin
wip
yu
yuh
##ras
##uine
##win
##wright
##lock
##mur
##onment
tod
wha
##arn
##ari
##itors
hallow
isol
shout
stream
##ading
##adel
##irm
neut
assem
summ
pride
veget
##ookie
plug
consequ
troops
quote
coach
scam
##ishop
afterwards
friendship
##izes
perman
acted
disaster
tracks
headquar
owned
moments
recru
##ggie
useless
genuine
awfully
wishes
coron
institution
discip
##iety
paine
memor
worthless
##aws
squeeze
imagination
operations
conditions
superior
marrying
entering
practical
convention
enjoying
advise
jumping
communications
roman
limits
produce
homes
mcmur
blocks
leonard
generous
laurie
raped
weakness
venice
arrangements
punish
confirmed
latest
merely
kiddin
version
vietnam
##lusive
temporary
fascinating
envir
comprom
august
arthur
extraordinary
entitled
headquarters
mcmurphy
23
bend
fond
gill
gree
ginger
hut
kh
nancy
pige
pushing
rotten
sides
tat
wra
##ront
##po
##car
##bie
##bird
##ja
##llo
##isy
##otes
##otions
ing
reception
belly
wears
hah
shu
##aled
stall
lily
##urd
chose
##ello
##ppy
##ilton
manners
##uled
##osis
werew
##beat
quality
blows
intended
scout
gram
waitin
poker
permit
runnin
secure
tons
booth
##acity
contest
controll
teresa
preys
jackson
driven
decor
##ibly
genesis
similar
shuttle
conscious
conspir
pulls
##ivers
snoop
salary
classes
transmission
erin
mistaken
pops
fairy
paulie
chicks
irish
packing
dennis
selfish
accounts
drawing
yelling
reminds
receip
attracted
civilization
random
disturbed
rowan
developed
josie
scotty
celebrate
persu
kidnapped
photographs
cherry
lobby
favour
sheldrake
nixon
procedure
##craft
achie
challenge
sacred
structure
academy
anthony
bachelor
dynam
moscow
ay
aids
batt
ditch
dug
lon
mand
nom
nav
option
pud
pup
ske
tips
una
vic
##uous
##wr
##lon
##kind
##oan
##com
##zel
##ba
anesth
##itect
##omy
##oman
##aya
hem
reject
whatcha
##leone
goose
shy
##alie
forbid
##aded
myth
##oos
butch
neur
socks
anytime
##essler
defe
saav
plot
seattle
exha
##olved
comment
##enda
spider
spark
lebows
peggy
shoulders
unre
intim
bund
grun
role
joan
crank
crane
adop
sweep
faced
handling
handled
morgue
interrupt
interrog
schm
slipped
apply
cheat
businessman
finest
forgetting
hitler
simon
earned
colon
corleone
instr
budget
studying
reported
owes
##artha
ruiz
##ysis
laughed
sticks
jungle
maintain
vanessa
escort
tempt
##ographer
suggestion
spirits
mmmm
architect
victoria
urgent
complaining
gallagh
terrorists
catholic
sealed
diamonds
epis
twisted
nurses
liberty
dipl
shelter
determined
chrissake
wicked
kurtz
spanish
enormous
prosecut
environment
preysing
saavik
exhaust
lebowski
gallagher
cind
eg
gag
hose
nas
op
pimp
rug
si
sinc
viv
wives
##ko
##mate
##gues
##do
##don
##born
youth
##aton
tore
toler
##esy
anch
##arter
##othing
##ombley
##asant
inner
weed
havin
israel
fork
stalk
stunt
##urice
##rix
##eau
sum
debor
##unction
alert
plates
##oln
spray
sphere
twombley
lew
fucks
dram
unique
integr
##berg
marquis
##acht
removed
emotions
pole
thrust
smarter
traged
charm
cheated
invitation
deals
restra
explor
election
sammy
worthy
dressing
republ
judy
basis
laying
##cription
feds
daily
digging
accepted
territory
potato
audition
martini
decisions
grip
criminals
sympt
balt
ambul
incredibly
crawling
suspic
krist
citizens
expression
cooperate
activity
unfortunate
pierce
friedman
nazis
international
options
clinic
surgery
aggress
cocktail
manhattan
telegram
cemet
halloween
deborah
git
ko
kring
linc
pals
pike
rans
wally
ware
##aves
##lane
##ken
##sion
##hi
##gic
##ias
##iven
##iator
##pear
##ds
##anch
toast
whales
begging
hammer
##idal
goof
sting
##ament
##hers
suc
suite
sulu
alt
manif
maniac
uses
##ifying
##endid
brut
##itts
clerk
lean
envel
drank
writ
helm
##aches
emily
##assy
couch
swed
##pton
hiya
uhh
active
stays
hears
boone
slut
slim
##dya
meetings
cheating
##phia
personnel
reads
ending
opens
counts
halfway
relative
obst
fights
##aze
murray
burke
curios
beats
annivers
horiz
impulse
radar
catching
bothers
merry
merrick
purple
judgment
parked
connell
hopeless
normally
motive
closest
silent
locate
clubs
evelyn
philadel
hooker
songs
custody
clarice
##burger
ruby
cameras
hostile
malcol
pigs
taxes
customer
##leton
brandon
combination
rumor
narrow
assigned
blanket
unfair
results
nazi
fashioned
phillip
bunny
voices
troubles
surgeon
shakespear
tiger
##otchka
strictly
precisely
peanut
deliberately
soviet
##osphere
coupla
lincoln
envelope
anniversary
philadelphia
malcolm
shakespeare
bent
dal
dame
dict
fuss
fits
gor
kend
kling
kings
length
mi
mun
nit
pose
pipe
sig
ts
tis
uta
wiz
yan
yacht
##rup
##lict
##mail
##put
##pers
##power
##zed
##zlo
##bal
##inity
##iture
ink
inher
reve
meas
goal
shith
sheep
shitty
lion
##iro
##eeee
soda
abuse
pra
prime
upper
##ested
frida
##iled
##artz
##ained
sequ
seats
guin
guide
exped
exagger
##ums
##aph
clothing
engin
##berry
scully
wrest
groc
waves
joanna
waiter
adele
##shot
resent
worlds
recent
diary
division
warp
sons
##pense
cleared
shove
presume
edgar
highest
relatives
questioning
bits
bitter
explo
syn
corp
messages
dropping
drawn
draft
##lina
propose
##umbo
studied
tested
visiting
landing
absurd
entrance
vienna
suns
seventh
brick
garrison
norma
torn
violin
ninotchka
romance
sucked
threaten
bandit
observ
##burgh
sharks
skinny
hostage
hostages
arrive
issues
harmless
daniels
flew
combat
booze
borrowed
mccoy
dragon
status
concerns
magnific
chapter
dishes
confirm
religion
##elein
##belik
betrayed
assuming
invented
wandering
certific
literally
kubelik
traveling
cobb
waters
suzie
interfere
symbol
crystal
tragedy
cemetery
kringelein
curiosity
utah
engines
bishop
cattle
dway
econ
egy
fisher
hunch
jed
jay
jere
jelly
kong
kenny
lame
mol
mong
martha
pile
rico
tale
voy
wyn
##rad
##rome
##rating
##wire
##foot
towards
##esc
##aron
##ete
##itate
##itable
##itated
##rels
heav
rey
rein
weigh
haunt
shine
##alf
liver
livin
yourselves
canada
sof
outl
outer
##rial
##ryl
##eller
##pps
deer
lovers
plague
##istration
##ulated
select
guid
guilt
exhib
backs
##ummy
maya
fuckers
workers
needn
mock
margar
maranz
grat
gran
crus
crimes
swamp
##daya
playin
phones
traum
##shire
prost
paras
glob
accused
payment
##what
eats
franklin
passage
airline
steam
incon
sorta
eleph
papa
grandpa
winner
proposition
beloved
distress
fools
##onym
explained
operate
superst
purse
pengu
##visor
roseb
raymond
severe
kicking
busting
motion
crossing
197
doubts
bleed
frederick
discussed
peaceful
requires
suspected
sailing
surviv
rubber
intellect
ideal
receive
balance
creek
generally
laser
santos
graduate
scientific
goddammit
logical
patterns
cuba
carpet
bernie
stinks
lecter
trailer
slightly
naive
prospect
morpheus
pacific
tremend
laundry
scheme
atmosphere
furniture
dwayne
egypt
biz
cried
dates
eag
epps
fid
ferg
faint
gy
nich
nuth
ripper
vom
##ridge
##lan
##now
##hand
##pes
##vant
##dale
##fl
tox
toe
tool
whit
##arian
##aser
rear
##leaf
##store
##imore
##imeter
donald
knox
stir
neph
sock
##inky
ohio
ohhh
seb
arc
comic
meanwhile
spill
brush
carol
lev
enforce
mulder
greater
##ogs
morgan
lawn
string
strate
interfer
insp
charity
ahhh
tennis
meters
thirsty
skirt
possess
madman
blackmail
retard
sentiment
##ieth
concl
samuel
raising
bela
hairy
smaller
fooled
merc
merle
operator
##cover
costume
penn
floating
protected
treves
creative
entered
jewels
juno
torped
violet
violation
limo
splendid
cooking
folk
physically
obsessed
gifts
wheels
feeding
mexican
creeps
effective
randy
scares
laszlo
necessarily
##anoff
rumors
wilson
mallory
lecture
liquid
temperature
barton
spoiled
explosion
deaf
struggle
assassin
producer
engagement
independent
alcohol
paradise
satellite
yessir
schwartz
valentine
patrol
gabriel
werewolf
conspiracy
baltimore
ambulance
maranzano
bam
cord
cunt
dub
dyle
fiction
ganz
kyle
lance
lane
lugg
luthor
mim
mush
od
ooh
rm
rop
rode
rita
vaugh
wins
wagon
##tw
##eu
##mouth
##gage
##pting
##va
##diction
##bow
##order
##orters
whoo
whip
##enstein
##aroo
##otta
reggie
bears
dock
dolor
##stick
##kel
stacy
##cho
##chester
wasted
noon
butcher
neo
sheet
chan
howdy
##rack
worries
orph
locks
plumb
sel
exter
##aste
##astian
backwards
bren
brady
mayo
tram
##osexual
callin
leland
lemon
enquir
que
queer
unex
molly
bub
##ueger
puttin
leak
thrill
##izer
ador
perp
monsters
missiles
flip
flood
disks
##attered
##ansky
parr
##acon
beings
contrib
dial
polish
walker
compound
previous
capacity
surve
highness
skill
sketch
questioned
colors
##encer
consum
##ials
starving
sorts
bodyguard
retrie
forgiven
collea
ridd
##oleon
samples
maggie
muscle
annoy
officially
impact
landl
covers
destruction
demons
prisoners
damaged
##grim
publicity
turk
##oids
boxes
##rington
circus
circuit
production
cookie
require
apology
electron
photos
##guing
recognized
survived
##ography
searching
shocked
nigga
include
bonds
magazines
jacob
gamble
commissioner
krueger
engineering
matth
matrix
stewart
bait
napoleon
ronnie
porters
montana
##nolds
negotiate
puppet
rehears
basketball
intentions
captured
announce
privilege
houston
##natural
surrounded
juris
diplom
wizard
magnificent
reynolds
sebastian
dolores
80
ari
bike
cly
cities
dyl
fats
hans
ich
jeep
mouse
mookie
nag
puke
pitts
rage
rats
riot
ss
sic
tack
vent
wrap
##rus
##uard
##wy
##lot
##lers
##mony
##hill
##gate
##iance
##ffe
##yon
##bag
thea
##anor
tops
tools
inna
##keys
##aly
##aline
##imm
donnie
lila
##char
##ira
##illance
chess
safer
orbit
plants
##ulting
seym
coma
compens
comedy
##umber
carr
carbon
amber
tramp
envy
##agers
##the
writes
##angle
crown
smack
smugg
smiling
boyd
acid
actors
##cia
handy
phrase
##anks
guessed
laz
inspir
momma
##pected
slam
sloan
apples
commod
##rove
sixth
gloves
walkin
aha
compared
drives
drivin
eduard
exclusive
ape
award
passes
behalf
humans
milo
madison
##cca
speaks
answering
strain
drops
filed
refused
reflect
fooling
fairly
wallace
causing
repair
reporters
##zech
davis
##zzle
sunny
treaty
involve
knocking
deeply
histor
silk
risks
carlos
screwing
possibilities
westley
homosexual
sucking
williamson
wilder
angels
hooked
physics
suffered
auto
autograph
pilgrim
melanie
fantas
matches
customs
chaos
marshal
claims
excellency
lifted
hawai
nailed
broadcast
extreme
corru
engineer
steward
alban
injured
associate
typical
primitive
reverse
transferred
dentist
entertainment
insulted
embassy
assumed
accomplish
##keeper
tube
ceremony
convenient
sacrifice
deposit
mckenna
gesture
democr
philosophy
wisdom
sabot
pudding
symptoms
succeed
jedi
wynant
fergus
nephew
unexpected
matthew
jurisdiction
dylan
seymour
75
99
ax
czech
ding
dur
fu
fame
foul
gin
hip
ivy
jody
kl
kip
len
lime
pope
penc
ral
rio
sust
sins
vod
##rors
##uing
##uum
##xim
##aire
##lante
##kman
##nic
##hole
##got
##cott
##yer
##bes
thread
whale
anonym
##armed
ingen
inquir
reass
measure
##cktor
shed
shap
##anta
withdra
asian
worship
alike
##usions
##arte
expense
spagh
conqu
##umes
brun
leather
lecktor
happily
muff
marie
undercover
helpful
probation
adrian
maf
monica
acce
flame
##ogue
display
mothers
serving
parent
content
brew
compass
deserved
chron
capit
##aughters
sleepy
resting
excit
christine
relations
frankenstein
murphy
infant
colony
##encing
##encies
india
delicious
bene
defensive
arrog
curs
painted
##lined
natalie
raoul
musical
proposed
transl
kingdom
owen
entry
centuries
operating
coffin
penis
attacks
honored
##ificant
illusion
smelled
strikes
kicks
borg
practicing
deeper
formal
##box
tort
communication
detectives
islands
documents
investigating
investigator
russians
suggested
heroin
praying
francs
wheeler
batman
fingerprints
contracts
climbing
stanwy
chairman
venkman
arrangement
yeh
cosm
analysis
laplante
cowboys
knights
holland
electrical
registered
flattered
disturbance
narciss
dudley
##ulsive
whistle
mantan
##osaurs
cocksucker
coordinates
multip
gravity
vivian
lewis
dramatic
ransom
horizon
expedition
rosebud
tremendous
eagle
enforcement
perpet
surveillance
clyde
vodka
spaghetti
ack
ara
cass
dow
dive
daw
daughters
erica
fulf
gym
jord
kal
kra
lest
lamp
maker
pod
posed
porter
rit
ranger
sut
sout
sank
sittin
tire
vouch
woo
wounds
wipe
##rd
##rett
##uf
##aver
##wald
##list
##lah
##elf
##mark
##iere
##pot
##pol
##point
##coming
##zil
##far
##bell
##bac
##bler
##ít
##ís
##äng
##erie
##anes
##oting
hav
hald
shh
shack
shave
##see
forms
##chair
nost
##amus
canyon
soil
##tery
##tering
chet
##opath
##icip
##icans
vel
worn
frust
seein
##ainted
placed
selina
gull
##ola
##abelle
backup
bron
mayfield
pecul
quad
unst
bloom
blaming
scumb
scoop
undress
daylight
joel
waits
##udge
##izz
swan
sworn
hockey
##atched
minnes
perm
##iley
acts
actions
understands
players
stayin
##mann
##eyer
nicely
##ocks
parlor
bold
slice
slap
hardware
##nerable
breed
glen
desmond
schools
gib
presents
promises
##ibilities
ski
##ivity
stepped
institute
sends
region
artagn
subway
bobo
annette
classic
straighten
bitches
error
addison
psychotic
psychological
nickel
marked
merch
published
penet
tread
feather
illness
creator
absolute
returns
bombs
198
hyster
furtw
souls
heavens
tracking
obsession
specim
frightening
taransky
expand
july
jammed
immediate
crawl
pockets
sources
employee
description
mutual
gambling
toothp
chopped
mortal
josephine
cathy
choir
ronald
tables
debate
slightest
stevens
sophie
batteries
ribbon
constantly
ignorant
atlantic
altered
razor
orchest
bracelet
syndrome
consequences
##birds
episode
aggressive
warehouse
nuthin
vomit
stanwyk
##ängler
peculiar
scumbag
minnesota
artagnan
furtwängler
400
bapt
cater
caut
codes
dix
dante
fans
fettes
hind
ike
jaw
kor
mast
pg
rational
sis
tenth
vib
vern
wack
wired
wires
yon
ze
##rust
##uu
##not
##pack
##oons
##cles
##fly
thie
##inal
##llie
whores
##eness
##uted
heel
reun
bean
beans
shred
stations
lilly
##ighty
##aman
##antine
##urb
abd
outs
sull
uptown
##icop
##icient
##rah
##estic
alas
alab
sax
sauce
##ulty
guild
##olve
willow
spons
spying
spotted
spencer
carn
amate
leopard
needle
oklah
quaid
mug
marvin
hull
underne
helicop
gru
poly
pointing
oldest
swana
mah
maurice
mini
ministry
fax
phoned
stubb
tomb
schol
attached
harris
tribe
drift
##ancing
childhood
eastern
countries
sets
genetic
differently
airpl
hunter
dinosaurs
##negan
fireman
freeway
almighty
snakes
snuff
burst
burger
##ippi
winds
arrow
dragged
raid
greedy
safely
straightened
haircut
leaders
medication
addition
informed
squid
humanity
imagined
flynn
maxie
purch
fixing
blowing
trevor
bosses
larger
chickens
iris
rocky
quietly
193
carla
halluc
discussing
rolling
temple
girlfriends
directions
contacted
programmed
heroes
approve
drawer
broom
levels
examined
exposed
slee
melt
berke
niggers
grabbed
satisfaction
scottie
immort
poisoned
punished
nicer
nicole
buffy
separated
depressing
psychiatric
powell
types
latin
stephanie
dignity
thorwald
improve
corporation
tanks
resistance
kathryn
demonst
drowned
battery
patchett
sheldon
terminal
sandwiches
chrissakes
candidate
utter
industry
pentagon
tattoo
chimera
supre
wiped
neutral
dynamite
exhausted
sincere
anchor
kristen
kendall
shithead
sunset
voyage
survivors
pittsburgh
ralph
excitement
jordan
ritual
vernon
oklahoma
underneath
bian
bunk
bio
bai
bingo
cough
dread
etern
gau
gino
hart
hong
hence
kel
lin
lid
linger
mount
niece
ole
rounds
sang
sane
vicious
vault
waking
zack
##uk
##uctor
##uana
##meyer
##gir
##oir
##corn
##face
##function
##bone
##ji
##eries
##atics
##atically
theories
##onia
##aney
tobac
##orse
ank
##etically
##otics
##ito
##omet
##reh
inh
##vember
hector
weep
habits
##idor
##stock
##ched
november
##illac
##urate
##urning
aspir
##icates
##elli
##andal
##gel
##istics
seed
##olves
ark
letty
##umph
branch
twins
offended
clues
happier
overr
overnight
drill
unable
intense
coin
coco
##agen
scent
scram
##thin
grounds
fires
wax
remote
##uded
swann
smash
smashed
minimum
##onda
##quet
craft
minded
owners
##pret
strand
schul
insight
proves
proved
prett
boil
slide
charl
diagn
meets
chef
##phis
watches
harass
triumph
dealers
compare
prey
deserves
capture
tense
picks
metaph
eatin
darryl
breakdown
evolution
reliable
gene
possessed
##ugos
simpl
conflict
brazil
indul
indians
corps
starship
closely
deposition
sniff
collins
messy
fellows
hush
calvin
##ippers
peters
curtain
submit
memphis
cleaner
proposal
medal
bucket
buckaroo
contrary
keaton
psychology
popcorn
teachers
toto
causes
covering
connie
convict
rocket
advanced
##cript
ringing
##ova
195
pissing
cecile
opposed
##teenth
cooked
cookies
equal
fields
suspects
suggesting
mirrors
label
judgement
shares
smoked
tricked
crashed
expose
begun
portra
##aude
dancer
civilian
authorities
assistance
spiritual
##itzer
sweater
requested
released
austrian
kirsty
disappointment
encoun
referring
chemistry
disgrace
album
fiend
fiance
printed
savings
lawsuit
various
primary
whadda
whaddya
briefcase
thorough
seduce
competition
##ijuana
priority
stamps
regarding
whacked
cadillac
crushed
experienced
morphine
initi
infected
rothstein
ultimate
remarkable
lungs
rudy
spectac
dodge
wealth
rangers
breasts
dismiss
compromise
achieve
cindy
koessler
inconven
penguin
channing
adorable
hawaii
withdraw
mafia
beneath
reunion
alabama
tobacco
28
31
aaa
bass
bisc
cows
dre
dart
ein
ere
eug
ego
foss
gaz
hilly
lys
lama
lined
pend
pond
roo
rice
session
tide
tib
vag
wich
##life
##kward
##eous
##mith
##nick
##har
##grove
##oly
##cie
##zona
##fish
##burn
thus
##ourage
##erous
##atown
##onna
##onies
todd
##ington
##orate
##oty
inches
reilly
meals
haf
##iding
goat
goss
shuff
stair
myers
##uster
##amas
##eem
sod
allen
allerg
##ria
chairs
chased
##opp
##icorn
##unning
manual
maneu
goods
##abet
amusing
click
clip
ens
needing
quant
quitting
killin
intact
##elope
cocon
scum
hugh
huey
underest
##ewell
grows
root
kindly
kindness
crop
cramp
crunch
coup
hollow
flirt
remembers
remembering
disgu
tracy
##shine
strings
resour
slack
slick
contra
##iana
harsh
harrington
cape
farewell
shovel
mete
decides
copies
copper
skills
eighth
beds
awkward
##aza
bites
columb
bravo
syl
geor
income
diner
bench
follows
returning
robber
calcul
touches
artie
curt
beaten
memo
annabelle
reform
distinct
balloon
visual
imply
surprises
ernie
sells
keith
owl
absence
##hhhh
catches
operational
hotels
privacy
float
treas
sticking
birdie
irre
denied
woody
cigars
circle
fatal
romul
visitors
limited
connections
investigate
contacts
programs
##ruder
constitution
specif
autop
rented
wheelchair
lamar
malfunction
grief
bearing
organic
danced
cockro
massive
banana
graduated
boost
domin
hamburger
argon
austral
sneaking
talented
corresp
encoura
reckless
cubans
servant
activities
chains
accomp
rhy
hollis
dummy
facing
facility
porch
passionate
hoover
nuns
abandon
faggot
comrades
anxiety
favors
automatic
lipstick
kentucky
relieved
andrews
breeze
beckett
divine
instincts
fortunate
volunte
cheek
##onnect
molecular
cripple
insect
receipt
navig
interrogation
integrity
manifest
brutal
margaret
bizar
conclusion
luggage
arizona
anonymous
southern
thieves
berkeley
schulz
hillyer
gossip
correspond
aa
bou
bin
dork
eld
eager
gast
gek
gates
iren
keen
lux
mour
nash
naught
pension
sway
ties
tang
tina
vague
venture
vader
yer
##tight
##wall
##mates
##ns
##ih
##iency
##via
##cour
##dan
##ded
##inations
toes
##inging
##esome
anarch
##aration
##iser
##oto
##asis
indy
##utt
heels
becker
meek
##cken
##aling
##immer
donna
stare
stens
stores
streak
lill
##verted
outrage
##riger
gotham
chips
prote
##icidal
##iel
##essions
##rav
welles
alib
manip
manchester
loom
##ulars
##osaur
##ifies
guitar
##olas
##akers
##ober
spank
bru
offers
ambr
overl
overwh
overhe
##employ
unemploy
blake
##elm
cozy
##thorn
##issions
heller
godfather
gren
roast
helpless
##nings
putter
remar
emil
thrilled
elena
cruc
probe
advert
swine
perf
theirs
fla
travis
tragic
household
mora
lazy
parade
appet
readings
accent
accurate
triple
trips
dealt
drif
cuts
pointed
easter
excuses
standards
booked
darn
breaker
gracious
towns
confusing
confront
passenger
behave
lightning
consult
shootin
blacks
dining
depart
depth
benny
##apping
##okes
retreat
element
ridge
riddle
feller
define
regan
##ippin
petty
cured
winston
legally
drapes
filth
classified
horny
refriger
ballet
transmit
visa
medium
reporting
landed
explains
merger
superher
penit
cannon
feature
paperwork
respectable
##balls
affirm
solar
hopes
##ikes
brig
responsibilities
##boat
194
199
vanished
fortress
visitor
belonged
modest
filling
sanct
equipped
##etched
photographer
anticip
sufficient
creed
farmers
sensors
terrance
prayers
audrey
blocked
frighten
vacuum
smokes
examine
mmmmmmm
towler
buzzing
faithful
queens
performed
technically
titan
scaring
identity
identified
interviews
switched
oliver
represents
hamp
freaks
planted
celebration
buffal
depression
bailey
cosgrove
##backs
dispatch
concentration
cabinet
##aaaaaaaa
therapist
panties
puppy
hobby
certified
qualified
bertrand
caviar
efforts
dedicated
thumbs
travell
wigand
scenar
alternative
vinci
legitimate
isolated
coroner
##rupting
corpse
certificate
sentimental
vaughan
orphan
acknow
haldeman
helicopter
gruber
tibet
wichita
meteor
gekko
affirmative
300
70
ais
cin
ced
cod
dess
dap
dated
ec
effic
echo
fink
fare
hound
hats
jas
jag
kob
kitty
lant
lod
lud
mace
mature
maude
nay
null
nuke
oth
peep
pms
ras
rend
soo
satch
tuck
tum
tender
vow
##roth
##west
##mart
##mund
##hard
##dog
##zak
##fight
##fol
##fire
##bra
##erate
##eria
##inite
toys
whew
##edge
##etor
anderson
rebe
rebels
dol
##lection
shang
##alt
liable
lions
##cel
canad
##illes
##urre
##ctions
justin
##rich
chump
atomic
##icating
somewhat
##ilated
manuf
orson
logan
sept
##osh
arguing
##obot
spite
spoon
brass
twent
amend
ambit
trous
ages
claws
lech
enlight
enzo
afric
##ember
unw
unicorn
blessed
scoo
helms
roach
leavin
elimin
listed
realistic
monkeys
flav
suppl
disag
disres
deadly
craz
fathers
housew
resume
interrupting
parano
##mmm
slob
slapped
##hne
##phin
johns
attic
finance
fold
harvey
##avis
barrel
presum
eddy
drinkin
excess
promoted
eval
evac
setup
grain
awesome
confusion
##rete
lighter
lighten
explore
explode
steering
##enses
admitted
elements
patron
murderers
painful
subpo
##umbled
distant
transm
imperson
oui
errand
losers
psychologist
freaked
images
condem
cafe
micheal
gently
palmer
jefferson
pressing
courtroom
peach
##nesia
destroying
footage
torch
communicate
ninth
verd
rolls
rolled
##ugged
continues
hyd
castor
castro
philip
cellar
electro
smokey
masters
massey
survival
julian
depending
cameron
pilots
therm
fingerna
sara
symph
cracked
civilized
lauren
ambition
precaut
originally
satisfy
motherfuckers
sweating
graduation
roses
suspended
galvin
domino
complaints
horsesh
rabbits
discovery
militia
scotland
reactor
european
purely
management
mortgage
##ylum
kidnapping
spells
pillow
hypoth
mathem
dumper
commitment
journalist
lesb
acquaint
internet
electricity
dimension
barnett
december
gabe
porno
despite
fraud
motorcy
chinatown
dizzy
predict
struggling
procedures
virtue
picnic
dudes
laboratory
kilos
traditional
methods
declare
chemicals
shells
iraqis
hustle
patriot
negroes
pooch
glorious
companies
administration
burglary
slaughtered
retirement
alpha
greetings
wrapped
controlled
forbidden
instrument
writers
klingon
yankee
arcade
strategy
enquirer
stewardess
sabotage
pencil
unstable
orchestra
sponsor
airplane
supreme
bianca
portrait
eugene
autopsy
bizarre
ambrose
perfume
moraes
penitent
hampshire
buffalo
dessert
daphne
lantern
rebecca
manufact
disrespect
26
42
90
aaron
bore
bain
bien
cum
cort
cork
dary
fade
fug
fract
hend
jig
jade
kry
nud
py
pulse
ratt
rene
tel
tiss
veter
yak
yield
##rin
##rent
##rest
##rise
##uest
##uations
##lene
##kers
##sky
##mes
##mers
##mine
##nia
##gal
##iary
##piece
##oen
##och
##fus
##fman
##yy
##oups
##inter
##atures
##anity
toky
##llor
##orc
##oran
whe
##arine
##eton
##omed
##utes
webb
haz
##state
shan
shared
donut
knives
stim
stable
##child
##ads
nooo
noises
##anted
butler
allison
allows
##rik
asia
asylum
shep
chum
chek
##icians
veins
##rain
herbert
seeking
ali
alto
saints
mankind
telly
loaf
user
##ulpt
##osure
##ifton
exorc
conk
amen
amour
amnesia
##aparte
clifton
overd
##emann
une
unple
intri
marion
maria
maroon
marla
scrap
sculpt
hug
wrist
lovey
rogers
##active
joker
believing
emma
poster
throws
##udy
crummy
adren
partial
smear
maze
homeless
pervert
perimeter
##ogen
phant
traps
tomato
##shop
residence
insom
slay
hardest
breach
##onsider
watchin
payroll
chrom
barren
decency
highland
obl
graves
jeopard
heartbeat
##erton
##ivan
signor
importance
install
factor
expectations
watergate
benn
disconnect
buys
retain
messing
burt
burg
pains
dragging
recording
natives
extension
studies
profits
refuses
hairs
testing
dicks
owed
merlin
conductor
martins
penelope
sunlight
sunshine
carryin
destruct
consideration
valiant
irres
irrit
bribe
buster
sherman
acres
devoted
upsetting
daisy
lowell
rising
ladder
disappearance
continent
macfar
elected
hookers
crashes
relationships
towel
travels
tearing
buttons
weekends
january
pageant
characters
speeches
weathers
magician
volume
domestic
femin
kaye
nails
employees
bonus
bonaparte
mutant
pregnancy
immig
ruining
approaching
corridor
funds
tuna
logic
crowded
junkie
perspect
association
rarely
pierre
avoiding
entertaining
defendant
leslie
lizard
deceased
counterfe
kathy
katharine
##check
spooky
replaced
swinging
creepy
accomplished
micr
experiences
gregory
picard
infection
rehab
##weight
atlanta
bourne
occupied
lynette
friggin
obliged
debts
delighted
wealthy
tuttle
toddy
punishment
pigeons
snoopy
persuade
anesthes
defeat
grunemann
schmuck
suspicion
goofy
guinea
guidance
gratitude
global
elephant
brenner
sicily
fantasies
dawson
lestat
eternity
hafta
curtis
naughty
shangri
trousers
african
subpoena
tokyo
chekov
unpleasant
macfarlane
34
38
800
bate
baked
cuff
dot
dere
dell
dash
era
erik
fest
fist
fian
fuse
fries
gt
gw
gulf
hick
hiring
ive
jar
kast
kau
lust
lend
lones
loos
lugos
mild
maps
oo
pam
pus
pul
pub
pork
penth
rash
tah
tapped
ul
vital
wag
##rod
##rence
##ait
##like
##eger
##master
##hy
##vet
##card
##dor
##zes
##fall
##jah
thigh
thunder
##erd
##atra
theft
##oning
anton
##isco
whatso
begged
beavis
wee
hamm
doo
##stood
##step
goeb
shag
shining
##sex
donny
knots
sty
stoned
##adays
noir
##ooke
##urer
neural
sox
sober
abort
abortion
##ctic
pritch
anyways
anythin
##icit
##elled
##ppie
##raph
wholes
deed
nowadays
loans
##igo
ohh
##isticated
semin
##olo
##olet
##abouts
##obe
##obile
conway
bras
brody
brok
brenda
twelf
careless
trim
leia
enth
quince
##emm
movin
mollie
mueller
hass
killaine
##elway
marx
marine
margie
scal
scored
scandal
grid
grub
groups
wald
jockey
longest
mustang
kidney
##uding
keepin
swiss
mines
understudy
missile
flush
##intend
handles
##ques
guessing
headaches
laval
interior
proven
roommate
hardy
funn
sixties
persons
finn
finch
compar
compos
compreh
tension
edmund
damnit
sleeps
counted
wished
##erts
##retion
incomp
discreet
discretion
sickness
saloon
arts
millionaire
curve
concrete
redi
subtle
annual
refr
radiator
jerome
freaking
population
controls
maxwell
michigan
supernatural
quicker
costello
demol
burnt
creating
roads
shortly
conviction
convicted
damone
norville
chiefs
motiv
advised
denver
neglig
##ovan
devices
armor
wooden
digest
digital
limb
directed
horseman
tracked
loading
idiots
obsc
politician
innoc
traveled
panick
orient
sarge
opinions
terrified
lyin
settlement
scrub
identification
claimed
flea
germany
cycle
cycl
employed
directors
described
wilh
cornwall
celebrity
mobile
graveyard
executed
mentally
reference
shirts
terrorist
desperately
unlock
vulnerable
maiden
associates
fabric
stabil
stabbed
scheduled
jacques
insisted
incidentally
occasionally
underwater
mackelway
##ooter
shaft
bounty
frag
tossed
channels
vehicles
vincen
determine
pursue
caval
cruise
containment
lombardo
narcotics
gathering
transportation
farther
misunderstanding
misunderstood
dyin
cloak
alcoholic
charts
northern
adults
dwight
vicki
heights
increase
nanobot
october
vigo
permanently
adopted
##borne
jeremy
haunted
levi
torpedo
retrieval
landlord
rehearsal
compassion
arrogant
cursed
treadstone
scholar
lingerie
encounter
einstein
allergic
alibi
loomis
overlook
appetite
aisle
##hardt
september
fingernails
tissue
wheat
conklin
perspective
bateman
kastle
lugosi
whatsoever
goebbels
pritchett
twelfth
enthus
cornwallis
32
48
41
auth
aster
barth
banged
baker
bryn
bacon
cate
coy
dmit
eject
fier
hink
lle
mt
miz
ost
pine
pne
pens
sessions
tee
vood
wo
wakes
zuz
##ae
##woman
##lar
##mia
##giving
##post
##cet
##cake
##cony
##zon
##fr
##fuss
##bro
##11
##jo
##jud
##oust
##inery
theor
##inge
##oring
##arms
##itan
##omer
##ometer
beard
beers
##leine
##idt
shin
shipping
##keep
##imo
stool
lil
##ching
##chez
nolan
##omew
##amins
alleg
##inks
##river
chi
chow
choo
chalk
choke
upside
uptight
worms
fron
wells
##user
teller
##oli
##olomew
backed
backyard
spats
spots
theme
##umann
brock
mayh
caro
carri
amanda
ammo
tray
trump
##bec
peck
##emois
unpr
unne
blair
marlon
scre
##issippi
lovebirds
gro
roots
finder
emer
embe
elij
##fton
mississippi
fazel
##orde
phoen
madeleine
serves
morris
strung
stroll
resort
resem
interpret
insign
parry
reconsider
divers
cheers
hurric
glimp
readers
clevel
accuse
ahm
foundation
invention
prel
caps
##etto
stuffed
barber
barney
pawn
prescott
edition
restrict
christy
casey
bookstore
hopefully
graff
graph
##gins
braces
indicate
conserv
delicate
huntin
mademois
stepping
chancellor
dinosaur
##oked
admission
eleanor
salvy
burden
calc
##ippe
articles
##apsed
stupidity
recorded
richest
extract
experts
transit
impat
##tenance
lando
landon
radical
contrad
loses
nearest
protest
freel
marker
martial
mouths
kisses
penal
##zzo
earthqu
##bridge
attacking
basil
ordin
respected
reaches
peaches
##iki
sandro
welsh
ringo
fears
risky
teams
carlton
mainfr
campus
greenleaf
circulation
cept
ceiling
claus
disappearing
sanchez
estim
estimate
preparing
threats
cellular
approved
approxim
senses
yelled
percentage
examination
##ographic
doris
existed
##ropol
theresa
balcony
massach
dupl
projects
marshall
identical
purposes
opportunities
olive
combined
mccord
corners
villain
cosmo
pearls
injury
kidnap
disposal
hypoc
spreading
dental
clayton
principle
materials
shhhh
pirates
banging
##igel
cynical
250
sophisticated
shadows
bounce
phillippe
recovered
affection
##rogen
etc
relief
##regon
rexroth
horns
salvage
##vania
fletcher
gloria
companion
alphabet
duties
crippled
##irsch
detonation
permanent
greek
pigeon
bundy
thrusters
potatoes
sofa
toxic
acceler
capitol
undressed
gibson
hysterical
specimen
sullivan
amateur
stubborn
lyssa
shuffle
maneuver
disguise
lillian
overwhel
rendez
lechter
acquaintance
krypton
hazard
phantom
fianc
kaufman
lonesome
penthouse
composer
wilhelm
bartholomew
dmitri
pneum
voodoo
zuzu
unnecess
elijah
fazeli
phoenix
hurricane
glimpse
mademoiselle
44
aah
auction
bah
bats
cz
capp
dorm
duct
eter
faking
fib
fountain
hast
hating
hana
iced
kinc
kron
lump
loop
nations
nigel
oven
ols
ounce
panc
peak
rul
rena
sings
tires
ugh
va
vanc
voc
wud
zomb
zira
##rr
##rill
##rator
##uy
##tiff
##wely
##ext
##sp
##mel
##name
##names
##nik
##iors
##iya
##pons
##vous
##oven
##fied
##break
##ouver
##eres
##erman
##inent
##inated
##anas
##orty
whiz
##enmeyer
##isk
##isance
inapp
inex
beware
welf
haird
##secker
stad
stag
stakes
stead
##cht
##chief
##chev
notion
##ams
##amis
##illery
##ooper
soze
ally
outdo
##oded
sul
sump
##opic
##opia
##icut
worf
worsh
frog
frost
fridge
##acks
alg
lookit
saus
plaza
##ulator
segr
sefton
arson
comed
##endel
spain
spice
convert
##ours
brooke
twin
offend
amuse
enh
enlist
pepper
quinc
drool
drama
blink
blunt
bluest
betsy
##elius
bugging
scope
##thouse
##issy
happenin
wretched
sorrow
grendel
empt
##asses
crumb
croc
adolf
advisor
hoff
mint
minim
minus
lotte
uhm
courthouse
misses
missus
flop
assess
##inton
##eeney
traitor
sera
lax
##shed
##print
intercept
schiz
##acing
contempt
##igned
dieter
turner
foster
clement
harvest
compartment
##avitz
farms
endanger
senor
prescription
childs
childish
eyed
darrell
figger
supposedly
evolved
speck
complications
compliments
##otto
franky
infer
##ontane
deaths
indo
hunsecker
cora
georg
discoura
alma
##oking
##ologists
burgel
regiment
regulations
secretly
liking
magua
rae
proposing
grease
perfection
classy
distrib
experiments
completed
absent
psychopath
felson
squat
jerks
##rams
prototy
tyr
freud
vibe
##coat
paula
pauline
dresses
fixin
musician
##visions
sunrise
courtesy
valet
growth
##boro
solo
##aaa
sherry
closes
torrance
##ilians
appreciation
violated
maintenance
sadd
circles
cecil
roller
gerald
models
connecticut
joining
apologies
particles
suggestions
grounded
ants
definition
bowler
difficulty
##works
observe
holiness
potter
tales
rains
pinned
sharing
moonlight
cups
searched
organized
climbed
supportive
deserted
attraction
shocking
performing
bells
professionals
randall
##lights
puzzle
lindenmeyer
ambush
rapid
videos
interviewed
brandy
virgins
urge
grades
rosa
galax
venge
provided
hamilton
ripe
disturbing
broads
broadway
gambler
languages
cornelius
180
chopper
witches
plaintiff
magnetic
snapped
encourage
jonah
cuban
stinking
pumping
##uzzy
dishon
guaranteed
150
recommended
typew
whaddaya
holler
journalism
occasional
panthers
challeng
clouds
despise
benefits
bartender
application
chewie
drowning
kiddo
literature
vietnames
pursuit
candles
teenager
assassination
gregor
##regard
initials
humiliated
bourbon
##worthy
crooked
sympathy
duffy
substant
tamper
oooh
platform
delightful
dwar
paso
unlikely
dutch
jaeger
nuisance
nyah
rusty
whispering
maureen
assembly
discipline
lonnegan
adopt
nasa
helmet
grocery
heavily
forgiveness
inspiration
corrupt
muffin
multiple
dixie
underestimate
contractor
australia
gaston
meeks
flaemm
scenario
canadian
paranoia
symphony
lesbian
altogether
bennett
categ
fierce
llewely
cleveland
freelance
mainframe
approximately
rendezvous
unnecessary
eternal
kincaid
vancouver
inappropriate
welfare
segretti
quincy
bluestar
vietnamese
llewelyn
29
27
ak
bir
bic
bik
cau
clem
cush
cunning
dine
drey
ecc
fert
fetch
fuzzy
gown
horm
hicks
iv
ils
kinky
ling
lag
lund
moth
obe
pace
rave
ripping
sou
tid
tch
vows
wand
zavitz
##rine
##rane
##rina
##uating
##lay
##sis
##hop
##gus
##iology
##overs
##cal
##front
##yll
##bat
##bby
##ouri
##onic
toon
##lla
##orp
##oral
##orous
wheres
ana
##edict
##owing
##etical
##etics
##itage
##itious
##itary
##itations
thatcher
##uties
rek
rely
reel
revel
repress
revers
whatiya
beeth
wease
meyer
hauser
shir
##iman
donít
donovan
stitch
##verse
notions
##ithium
##ammit
##enton
##entially
candle
##allel
nex
nev
abst
##eable
chad
chili
##icity
##racks
##eston
herb
righteous
mansion
##gey
loath
##ista
whereas
##ifully
##olt
##olph
arse
aramis
spear
spies
spaced
conrad
offensive
carson
aged
clut
clair
leff
enid
enri
makeup
##bean
overse
unload
mold
moore
bets
hash
intu
intimate
marcia
coha
scound
scars
undert
lovejoy
helena
groom
waving
remo
##anges
leap
leagues
##assing
##tage
##perd
cro
swat
##ptic
hog
mining
uhura
monstr
missouri
flames
flipped
assured
phase
phoney
pharm
disrupt
##quire
##quette
##quila
crabt
crabs
##redict
mindless
headlines
resident
resurre
interpol
schumann
schuy
boz
boards
##arez
slit
slaves
##ignment
glam
polar
attending
finer
planets
accus
accoun
accusing
tease
text
payin
thanksgiving
prejud
tennes
##etts
situations
differences
barker
barracks
endless
sounding
pickin
metropol
restore
restless
eyel
prices
darned
millie
skipped
skye
fighters
confuse
passeng
##ivable
infl
cola
colomb
signals
beha
humble
indicates
##iera
blooded
dela
hunger
hunters
steed
geoff
starve
starks
##insk
firemen
##ensity
depri
discount
sexually
messenger
##ucing
ridin
regula
touchy
windham
artoo
redne
native
louder
rafe
midget
gladly
transpor
added
addict
specialty
##ervo
absor
rufus
squir
accidents
supervisor
purity
publishing
publisher
##ounced
positions
values
umb
reaching
irs
tougher
turf
denying
layin
sandra
catal
torment
cardiac
located
locals
bottles
spacecraft
carlotta
maine
mainland
vanity
hallway
saddle
geek
verona
posters
accountant
witnessed
amazed
furious
equals
delivering
angelo
quarantine
heroic
physician
masks
idiotic
approval
pushy
talby
civilians
panel
arriving
arrives
theres
conditioning
organize
organism
receiving
issued
harmony
authorized
duh
archer
keyser
subjects
lucas
flee
angie
rosen
requests
hawkins
severed
ethics
accessory
gallery
whisky
positively
malloy
cooperation
battlefield
appointed
jonathan
included
representing
representation
representative
terrorism
vallens
activate
roderick
pumpkin
reno
rennie
trading
hypnot
uniforms
expertise
tanker
wendell
wesley
products
panther
optim
demands
1000
shaving
mattress
explosives
recovery
iii
oscar
conducted
katrina
linked
microw
experiencing
relieve
ignorance
misunderstand
scenes
mechanical
declared
independence
sinking
fortunately
commercials
licked
industrial
bulj
flowing
unpredict
cuervo
dillon
insec
frequency
vegetable
hutton
unreal
joanne
instruments
nasal
##donald
suspicions
inherit
observation
trauma
prostitute
interference
inspired
rmph
ropes
colleagues
electronic
historical
narcissus
dowd
havana
bronx
yonder
alaska
immortal
utterly
dreadful
implying
specifically
volunteered
mourning
stensland
superhero
cedar
##folk
twentieth
amendment
ambitious
scooby
disagree
adrenaline
barrenger
broker
comparison
refresh
panicked
massachus
fiancé
pneumonia
kronos
olsen
hairdress
stadium
georgia
ilsa
beethoven
weasel
lefferts
cohaagen
crabtree
schuyler
tennessee
passengers
47
4th
55
85
ale
aub
bot
bim
bind
bib
bates
bij
cue
clemen
cbs
dors
dwell
eater
epid
gil
gem
gide
hirsch
jets
jumbo
kre
kore
kitt
lena
munch
motto
nup
nipp
ooooo
riz
ramp
render
rasc
sque
sissy
ti
tink
tux
vest
vain
votes
wl
wan
wilt
wiring
zul
##rations
##riter
##rari
##uge
##aac
##tes
##top
##wash
##weed
##lvania
##ski
##mb
##nge
##nels
##hal
##gans
##ii
##iate
##occ
##cat
##cuff
##zi
##fty
##bin
##ban
##bok
##bility
##10
##inck
##inate
##inished
##ata
##atin
##edith
##owa
##otine
##itals
##asm
##utz
heine
heming
##ereo
ree
reib
rebel
hail
hacker
##levant
##iders
##idote
##idency
isaac
golly
shade
shorter
##sell
##ala
##ims
stoo
stif
stashed
stella
stereo
lia
##verick
##chess
##lyss
neb
nels
sollo
abbe
outpost
gotcha
chunk
##oper
atom
debi
deploy
##ilation
everett
sayer
##usinsk
##ively
mans
pla
plank
plato
##igod
##iggins
##istan
##ifty
gump
arlo
como
##endar
##aborate
willet
backpack
spine
sperm
spontane
brat
offs
mayfl
caring
cargo
carries
##ousing
troop
##apo
claw
download
moreover
blades
betting
mule
marco
marrow
cox
scooter
gras
grusinsk
newcom
imbe
plead
##pless
emm
lasts
throne
elo
elaborate
##uda
##izations
crock
smy
smashing
hock
hoax
maverick
perry
courses
flunk
flaw
suppress
handcuff
startin
phyll
hearst
dischar
traject
traced
reserve
intercour
throughout
insulting
param
sling
##orrh
context
appe
appleton
warner
##roid
babbling
gland
glue
reader
teasing
tequila
harper
harlin
harrison
mornings
deser
barbec
paw
pickup
dolls
hotter
apoll
apiece
beautifully
forgets
promising
##iba
reliant
skating
honour
bedtime
awright
##gina
bully
simulation
confined
hearted
##iva
info
behold
delmar
madness
##lands
corb
corny
stares
incor
incap
##ensen
##ensed
discl
freely
admired
admitting
robbers
salon
##sylvania
defending
grandchild
shipment
windsh
artific
sample
subc
beatin
hanged
lounge
raft
musk
propag
midge
greed
ordering
classroom
banking
losses
cooler
protocol
nickname
meredith
accidentally
##coon
caen
caffe
maximum
publish
##ergast
posse
floors
##bris
sunk
##bted
majority
pressed
misd
honorable
smartest
feast
##aldi
creates
##maid
packs
brien
eyeball
norbert
appreh
armored
rises
risking
mainly
campbell
relaxed
boarding
cease
verse
verbal
allowing
disappears
healing
tasty
required
gardner
addressed
masterpiece
marriages
princeton
antidote
suffoc
loads
creation
sensible
obsess
recognition
mcg
mcint
##burgers
shari
tricky
ruben
mmmmm
portal
towers
juan
melvin
##roph
buttle
detailed
italians
terrifying
massage
masseria
concerning
duval
technique
embarrassment
generation
precinct
cousins
hatred
bananas
##ophone
anglo
degen
complaint
requesting
forehead
employment
tourists
relevant
repeated
shrimp
gardener
execution
magnet
funding
references
amongst
miracles
persist
shifts
negotiation
associated
gaining
cancell
partnership
compete
principles
priests
currently
barnhardt
attempted
rigged
reservations
applied
mummy
mumford
warden
chewing
critical
explosive
cadet
affected
qualities
micro
dewitt
vito
teenage
ummm
wrecked
humiliate
ironic
mysteries
warriors
oakland
mechanic
revolutionary
sympathetic
gestapo
tribune
hustler
bolt
baldwin
2000
instantly
satellites
confidentiality
cheeks
springs
sparrow
tactical
##lowe
essential
molecules
pipes
memorial
receipts
battles
mandrake
pupils
##writing
rejected
bundle
gruner
tolerate
explorer
measures
wrestling
synth
exhibition
parasites
pennies
pennsylvania
plumbing
colleague
annoying
sssh
commodus
involvement
albania
albanian
democratic
sustain
quadrant
skiing
wacko
purchase
meltdown
demonstration
prettier
fiancee
pendergast
columbia
georgie
irrelevant
romulan
accompany
boule
anarchy
##thorne
refrigerator
acknowledge
jasper
otho
sooze
horseshit
corky
aliens
chromium
irrespons
counterfeit
microsc
incompet
brynner
shinzon
insignificant
impatient
czar
prototype
typewriter
rekall
enrique
microwave
buljanoff
hairdresser
bijou
clemenza
gideon
rizzo
reiben
sollozzo
grusinskaya
phyllis
trajectory
intercourse
apollo
irresponsible
33
36
911
au
aer
alyss
bont
bial
berg
bode
bitten
cot
cic
cine
cel
cors
cair
coop
dak
dried
dair
dances
fet
fitted
gle
gust
gina
hoop
jin
jude
ker
kle
kur
kitten
nause
nite
nude
nba
oy
pim
pans
pins
rally
rival
ratched
sip
siber
tart
tau
tipped
tucker
ud
vet
vas
vap
viz
vald
vander
wisc
yank
zip
##rom
##rum
##rous
##rative
##rants
##robe
##uett
##wer
##will
##water
##wyn
##lain
##kon
##nob
##nity
##hm
##hor
##houses
##gant
##gio
##pit
##pace
##psy
##cest
##core
##cup
##dn
##did
##dling
##zini
##fare
##bath
##bott
##inction
##atu
thesis
##anium
whitt
whipped
##enson
##esus
anat
##aro
##isin
##ision
##etz
##etric
##itas
##itter
##omin
##asions
inev
heir
heath
beep
mead
##stream
isab
shab
forens
forcing
stun
stern
stumbled
liza
##verty
knowin
##chm
##adena
myra
nods
##amo
##amoto
##anton
##antly
##entric
canary
##allows
sole
outstanding
##oda
##rig
aspect
chast
chilton
pry
pron
prague
##opy
##opher
##icon
##icable
##racy
##estyle
worley
##unting
herman
alamo
##inder
##ilizer
lookout
saves
plut
##istically
##uckle
seas
seiz
seasons
##osity
guer
exotic
##olete
arra
arnie
arlyn
backing
spic
spike
conor
conver
convey
lett
##umble
bred
trop
##apse
cluett
lease
leons
workshop
overs
overp
overre
overtime
peop
aft
quart
quint
drugged
gondor
blo
blur
blend
marv
mariet
marijuana
bugger
coats
scouts
scattered
##issa
##issom
undo
hugo
grove
grissom
rooney
newly
joh
giron
remot
##placed
##angs
##anging
poe
poke
poverty
criss
keeper
swip
switzer
smiles
shitless
lothar
hike
doesnt
monument
assed
assurance
##cian
listenin
handing
handic
phen
runner
secured
disse
disney
disorder
elsewhere
##ateral
##shaw
parach
slot
slug
harding
apprent
##onsin
polo
attach
financing
##ggers
payoff
paycheck
tril
invasion
invitations
prev
preced
desires
menace
surfer
sitter
barrier
barrels
babys
preserve
mets
restored
arena
untouch
prominent
secondary
lawrence
relay
youngest
skunk
grabs
awww
##otte
policemen
infr
infilt
significant
airlock
aircraft
##nov
doorway
trusts
milton
consent
delusion
shoots
starters
expects
deputies
sidewalk
benedict
freezer
retail
snot
snatch
snitch
forged
collapse
##ucci
rides
burial
calendar
grandpar
patsy
artists
artillery
curly
winch
conclus
livingston
raven
raving
##umbling
extent
extinct
reflex
transpl
destination
dickhead
mistress
ruins
##awk
informant
nearby
felony
squirt
explaining
paste
caf
dresser
michelle
supermark
coverage
kissinger
##zzzz
judging
##brush
##heast
protective
casan
casper
drugstore
treason
valid
shortage
hopkins
drunken
deepest
boatwright
neglect
devast
armitage
radioactive
bombed
192
bleek
halloran
circuits
verge
churchill
limp
gerry
shops
lotsa
healed
correction
karla
electri
appeared
colorful
##aius
obser
surviving
prayed
beaches
blocking
sheriffs
vacant
admirer
exposure
taping
portion
portland
collecting
screamed
piggy
grif
sarc
reminded
meaningless
cocky
reprod
##ega
cheaper
duchess
archd
archie
lasher
stockings
crawled
precogs
luca
videot
claiming
banner
banished
ratings
rambo
ramona
ashes
cyber
rosato
domini
employer
adams
arguments
ethel
goddamit
congratulate
shrub
approached
celebrating
chops
taller
talley
indiana
fundament
tunnels
cartman
cartoon
inspection
referred
servants
restaurants
punched
activated
lapd
fiji
lednov
strangest
renew
unfinished
vari
briefly
wolfi
fascist
acquainted
experimental
currency
universal
implant
ferrari
negotiating
astron
hobbs
hobbes
pornography
despair
pouring
wardrobe
pitcher
holidays
applejack
terminate
cheerle
membership
lacking
prosper
punks
vitamin
troubled
flattering
teenagers
##ebra
producing
##ulsion
gutter
whistler
replacement
becky
convenience
sacrificed
kilomet
pitiful
savage
lynn
ultim
mechanism
surgical
spinal
tribun
iraqi
northeast
substance
championship
bolsh
tammy
waddaya
premature
scrape
burglar
volunteer
vickie
##ecou
tranqu
bushes
philosophical
resignation
established
pasadena
tactics
increased
350
omel
nellie
athos
muddy
imperial
recruited
recruiting
gillis
khrus
tatum
grammy
controlling
consciousness
favourite
anesthetic
intimidate
tempted
republican
altitude
maniacs
swedish
slimy
signing
praetor
economic
fisherman
jeremia
reinforce
crusher
prospects
nicholas
retarded
selena
bubber
bubble
dialogue
riddick
turkish
wilderness
democrats
chronicle
cosmic
krauts
sutphin
caution
korea
saxophone
arroway
override
sniffing
curtains
thoroughly
spectacular
hughes
distinctly
cockroaches
nashville
blacksmith
travelling
exorcism
insomnia
immigration
festival
edmunds
innocence
fragile
vincennes
scholarship
enthusi
authent
carolyn
conservative
duplicate
outdoors
dwarf
eccentric
eyelash
unpredictable
massachusetts
hemingway
imbecile
smythe
windshield
caffeine
boulevard
alyssa
bontecou
bialy
cairo
dakota
taupin
viznick
wisconsin
isabella
gondorff
marietta
switzerland
grandparents
conclusions
kilometers
khruschev
jeremiah
69
600
78
aqu
bos
bers
bix
cd
damp
dah
dys
gat
gand
gul
hath
hare
hides
higgins
ig
ist
iowa
kee
kop
ketch
lent
lain
lass
lens
mend
mice
mph
muss
moose
moses
nune
nsa
oly
ober
oona
oregon
pest
pame
pint
rim
riv
rye
vile
wart
witty
xxx
yog
zoe
##rimin
##uar
##uild
##xl
##xious
##ais
##try
##tub
##worm
##lson
##lets
##lift
##letic
##liest
##eur
##sucker
##mun
##mind
##hound
##good
##pool
##oided
##dles
##drop
##zie
##you
##bc
##bis
##buck
##buster
##jan
##jamas
thorn
thail
##erone
##inum
##atr
##atore
##atisf
##onent
##onium
##aning
##anne
##anche
tol
##ingu
anten
ancest
##owl
##aria
##eta
##iti
##utions
heap
reign
reph
whatt
beverage
bemb
haunting
dose
docks
##leg
##leen
##storm
##struct
sham
shatter
shades
shorty
stut
stash
stump
libb
notified
noisy
nek
alla
allies
chaz
sued
##ando
##ieval
##rag
##raine
##rault
decks
seeks
alger
alimony
##inda
sap
sakes
ort
orb
lov
##igur
##igning
timer
whereabouts
##ulating
couldnt
##iffe
##astics
willya
backward
spa
spitz
conner
lethal
##umper
carmen
ammun
tresp
trinity
ench
needy
overcome
peking
ungr
unarmed
moe
moh
bled
blamed
blaze
intest
intel
##berries
mare
marble
mario
marines
##agan
scru
scores
hubley
daytime
underp
##ishment
thoughtful
groo
grind
newsw
##ipher
##wny
mustard
##iche
emph
empress
##adys
leaks
##adek
elbows
elias
##uddy
crude
probability
couer
courier
sweeney
hoot
greatness
lottery
acme
flick
flare
floyd
assets
handful
handwriting
##orda
startled
##ilda
disarm
deadline
mothersh
laf
##eya
##shell
interv
camel
insert
insists
insanity
moms
boast
slower
slots
slipping
slaver
slippers
recorder
charter
diver
warped
##ormal
babes
glove
finishing
foll
accomm
teas
terrain
payday
payments
inviting
compulsive
##avius
stuffy
barf
barks
barrett
barzini
paley
##ashi
wonderin
gibar
holdin
presidency
meter
easiest
christs
christie
standin
apes
figuring
promote
evident
millenn
##ceptive
genev
obtain
fightin
bullsh
worryin
goddess
confessed
shutting
infirm
airlines
brakes
bracken
lighthouse
trusting
humperd
sybok
indig
indef
indicted
dreamer
consist
delusions
hunk
hunh
hunted
reasonably
madmart
starved
incom
##neider
##ioces
truths
lieb
strapped
snort
snip
colleen
elegant
robbing
caliber
grandson
patio
regrett
artistic
peterson
husbands
sweetest
painter
redhead
drain
filter
magruder
subt
senseless
presidential
raises
belg
dearest
richie
richards
greer
worthwhile
extortion
horace
refund
refusing
distingu
testified
ballroom
transform
medio
medieval
banker
surprising
erase
ergo
rupt
squeez
freight
merced
teaches
flyer
topic
##oca
##ocated
pleases
judas
honesty
##heim
caswell
treats
courts
misplaced
davidson
connor
involving
##ificance
respects
strongly
slowing
junction
damon
norfolk
shermin
footstep
##boards
communists
bombing
pisses
carlo
dangerously
woodward
screwy
fredo
stationed
hmmmm
postp
buncha
directing
homicidal
##cuted
macle
tasted
esther
apologizing
cowgir
suckers
equality
particip
avoided
dumbest
##anners
quarrel
suggests
suffers
crem
sensational
observed
commands
ghetto
rainy
pinch
pinta
smokin
guarded
guardian
politicians
exposition
dumps
towels
collected
panes
juarez
##itorial
butts
grie
##paper
duane
bella
mixer
roberts
simpson
marshm
weaker
introduction
virginity
switching
ramelle
gangs
ignored
ashore
cyrus
##ilsen
tourist
wilkes
101
ethical
austria
developing
moods
britain
bayon
mailed
kross
114
nicolet
nicotine
skywire
##icycle
encl
includes
butterfly
bernard
chained
albany
napkins
pumps
rheya
woodsboro
jessie
cathed
lifestyle
##mmmmmmmm
elevated
stephens
corporal
sedated
competitive
##club
regrets
gateway
acquired
ferrie
hayes
joyce
puppies
nursing
nursery
stamped
phillips
commerce
paintings
novels
shelby
caddy
kimber
lobster
automatically
versus
ministers
convincing
recommendation
links
pistols
crucial
hesitate
contained
virtually
rags
humiliation
humiliating
trembling
ignoring
clowns
minority
mckin
##lihood
crooks
shotguns
salvation
adjustment
bumped
suzette
##xxx
blessing
swallowed
pooh
##walker
analyst
analyzed
luis
establishment
hitchh
athletic
007
pipeline
##arnation
khan
stalling
battal
hemorrh
schmidt
stalker
leaning
obstruct
obstetric
lengths
inherited
reveal
revealed
exhibit
superstition
intellectual
inspire
torpedoes
mimi
roper
tramell
contribution
announcement
diplomat
corruption
axe
inquiry
conquer
conquest
permitted
masturb
sleeper
gauge
hartman
ankle
scrambled
stranded
inconvenience
biscuits
drexl
fossil
coconuts
resources
sylvia
calculated
swayzak
outrageous
protein
spanky
overheard
unemployed
remarried
drifting
titanic
lodge
eliminate
condemned
precautions
motorcycle
fugitive
veteran
loosen
wagner
woah
emerald
prelimin
restricted
penalty
shuffleboard
comedian
crocod
minimal
clementine
discouraged
substantial
obey
ravell
shirley
nexus
abstract
monstrous
accounting
redneck
umbrell
wladek
##occup
stifler
nebula
corbett
incapable
subconscious
dairy
inevitable
lettuce
peoples
remotely
casanova
archdioces
tribunal
bialystock
gandhi
kopals
nunez
olymp
pamela
xxxxxx
thailand
rephrase
bembry
ammunition
ungrateful
scruples
mothershead
accommod
gibarian
millennium
geneva
humperdinck
mercedes
footsteps
63
65
87
bm
bry
bake
bak
bicycle
cet
cact
cinc
cmon
dand
dul
dab
dice
dile
dott
dual
duel
fern
gurn
gals
gaff
hin
hed
hilar
ií
kw
kessler
laughter
lark
lounds
lining
mit
mop
mma
mirth
morde
nym
oe
ola
oops
oasis
pion
pix
pino
poop
rut
rus
rapp
rattle
ruled
sven
sought
ssh
samp
tying
tijuana
vot
vast
vine
vene
vatic
vista
wool
wits
wench
yorg
zion
zammit
##rid
##rater
##rings
##rime
##upp
##ucc
##wa
##wl
##wanda
##lace
##kar
##eenth
##eanor
##sberg
##mad
##mons
##most
##nea
##nard
##hen
##holes
##gra
##gil
##gled
##vale
##ointing
##cur
##cap
##cula
##zs
##zas
##zetti
##flies
##yers
##yamoto
##bre
##brew
thugs
youd
##eroph
##inn
##inin
##inos
##innat
##oni
torah
##orus
whips
whites
##owitz
##itories
##itutes
##omi
##omen
##omber
##asa
##asers
##rep
input
##aying
heater
hebrew
reich
reinc
beet
begg
weary
meg
haired
halo
havent
##lee
##steen
##ghy
onions
shee
shaman
##sexual
fores
formed
ster
sten
stack
notices
##amatter
##anth
##illion
##ooping
areas
sooth
abbott
alle
allig
##inkle
##rift
##rief
shelf
chis
chand
hereby
##oped
##opus
upbr
anyplace
##icia
##icial
##ieu
vein
##ppers
deception
debris
##unity
fret
frames
herd
alarms
manzetti
oral
orgas
oranges
organs
##geois
plaster
plumber
timmy
seamus
selection
gund
exits
##oline
##olia
arist
arctic
##abilities
##ounding
##obey
brow
brid
brink
brett
brung
carved
carav
carrier
##ousine
amity
amused
agitated
clitor
leash
happiest
needles
overt
overth
overboard
overload
pel
peasant
drisco
##empting
unb
unnatural
bliss
blaz
blaine
betcha
##berman
##bergs
marse
bubb
coch
##agious
##agara
##aggio
wont
undead
wrists
soran
grill
grange
roston
newt
##actory
jock
believer
mustache
putt
remorse
emin
poking
lasted
leaf
elbow
crm
crows
crops
ads
adon
adore
smiled
isnt
maids
minors
mineral
realizes
homecoming
perse
perrault
uhhh
monk
flour
flock
faerie
actin
playboy
##ogged
runaway
hearin
disobey
deadbeat
tractor
cracks
##shi
strat
doneghy
reset
reserved
proving
##acs
##mma
slash
yale
recl
charenton
##angeli
contagious
warfare
functions
fungus
sonora
chevy
##phins
glance
glitch
attended
attempting
foc
harms
ahold
tripl
trifle
dealin
preoccup
desec
farren
drivers
barge
barking
senators
cutest
metro
pointless
bookie
unto
##ibles
##peed
billions
mille
skim
skate
skank
obno
grape
gravy
await
questionna
biting
earrings
##aha
infat
colet
airborne
humility
indict
induce
##ieri
consuel
bloodshed
hunner
hungar
madonna
steer
geese
starboard
##cco
blackjack
inclined
dino
deter
waterfront
disco
bodygu
powered
straps
snuck
collateral
riders
ridden
calf
registration
esp
sweeter
reduce
reduced
dracula
magda
subd
uncut
racial
musket
annih
greene
orderly
extensive
extrater
clearing
refuge
bitching
testifying
glades
transition
transvest
bankrupt
radius
err
ern
erotic
cooling
catcher
squire
hospitals
markers
fastest
imagining
popped
coffins
accidental
pasta
condom
wallpaper
privately
repairs
hospitality
superintend
purg
oughtta
costumes
doucet
##ounce
macho
machinery
blowin
##bruary
rays
jefferies
considerate
##oula
courtney
invested
investors
february
valve
demo
demille
spends
##ifications
siddown
illust
illusions
roadbl
striking
iranoff
strongest
michaels
bastaldi
toughest
ticking
advent
jumps
jumpy
turtle
bathtub
crosses
footprints
layton
sandman
##cribe
weirdo
catwoman
ella
elle
ellsberg
silo
feared
lowest
woodly
screws
bleach
occasions
sadness
relaxing
roma
vermont
camper
limousine
temp
splitting
connects
homo
continuing
hyper
##loaf
presented
investigations
investigators
equally
preparation
##keye
kara
karras
louisa
programming
gasket
##uthorized
drawings
territorial
necklace
obsolete
datab
clarify
mcp
mcgr
dependable
##burst
difficulties
credibility
expend
taped
exceed
excels
dumping
feeds
sleaz
intruding
bathing
views
juven
fingered
grift
mexicans
notebook
janitor
meaningful
climate
climber
climax
supporting
balbo
balanced
langley
massac
belle
belleroph
agrees
cooch
generate
puzz
##ennial
conversations
warmer
##aminated
software
precrime
devils
uranium
bondage
rambling
gangster
angles
ashley
rosaline
sights
females
breaths
statues
apparent
argent
mutants
development
repeating
remaining
immune
mobil
nicest
villa
skywalker
plainly
gaye
telephoned
meatloaf
mentality
blanks
otto
oceans
thursdays
vulgar
##nnn
rhonda
injust
injuries
dusty
lifting
instructed
falco
improved
gained
canceled
debrief
facilities
lesions
wessex
officials
boundaries
demanding
negotiations
sophia
rackets
hudsucker
bouncing
flashlight
chambers
spooked
literary
beams
monkeybone
terminated
tags
cheerful
launched
responding
##blance
##uthers
conceal
conceive
assassins
produces
litter
tubes
fascinated
rotting
reconstruct
niagara
divided
bourgeois
scenery
deposits
lynch
racing
racist
salvatore
##esthetic
semi
semester
distraction
sympathize
chuckie
sewing
norton
alternate
interface
cowardly
mamma
monitoring
premiere
cocktails
administ
administer
burglars
democracy
items
delayed
casualties
bidding
hatchet
fluid
pollux
appealing
subscription
dillinger
chimney
functioning
frequent
exceptional
summers
compromised
ditched
skept
unauthorized
butchered
temptation
prosecution
environmental
restraints
republicans
dalai
miyamoto
exaggerating
certificates
economy
jellyfish
outlaw
parasite
globe
elephants
superstitious
parrish
tackle
smuggling
succeeded
klute
sustained
threads
shaped
brunette
chronic
tortured
gymn
kalen
sutton
nostril
velvet
merchant
merchand
toothpick
toothpaste
shreds
abduct
carnival
miniature
additional
liddy
##ukk
ankles
arkansas
cocoa
ownership
charleston
charlotte
petersburg
inconvenient
fossils
##oppy
quantum
coconut
resource
encouraged
rhyme
irena
irene
bruises
grenade
sanctuary
efficiency
kobay
##fighter
##initely
supplied
housewives
mathematics
pyram
tomatoes
feminine
anesthesiology
derek
gwen
hassle
scalp
funniest
cavalry
hinkley
screening
embezz
hypocr
algout
rapidly
vengeance
tampering
lingk
lundega
overseas
intuition
liaison
grasp
barbecue
cancelled
vapor
overreact
infrared
devastated
shrubbery
bolshev
berserk
lainey
antenna
ancestors
whattaya
libbets
slavery
indefinitely
madmartigan
cathedral
kimberly
preliminary
umbrella
kopalski
bmw
dilemma
gurney
hilarious
nymph
oeuv
sampson
vatican
yorgi
zammito
##innati
reincarnation
upbringing
orgasm
caravaggio
clitoris
driscoll
obnoxious
bodyguards
extraterrest
transvestite
superintendent
lundegaard
46
64
73
72
97
900
apr
aux
bery
biff
baw
cain
cries
dc
dag
dade
dunk
ewe
fon
fen
fraid
flex
fangs
ga
gel
gail
hul
hips
ion
icy
jell
ka
ky
kap
kla
kaf
lace
lure
lonel
muck
mumbo
nim
nad
norr
ov
oun
pm
pi
pom
pall
ply
pate
pause
pies
pta
pank
ponies
ri
rol
rated
rors
rates
rookie
siz
sny
sier
sized
tus
vee
vind
vend
vase
xk
xen
yv
yoda
zen
zimmer
##uji
##aul
##tz
##tic
##tles
##tieth
##track
##wind
##wide
##word
##weg
##lad
##lich
##lav
##lical
##lov
##kt
##kill
##eon
##sen
##moth
##mary
##muda
##holl
##gom
##iated
##iologist
##py
##vich
##cend
##crow
##zuel
##zburg
##food
##fair
##bul
##bank
##bitch
##bons
##bury
##bugs
##17
##15
thai
##oubted
##inople
##ati
##atical
##onimo
##anches
toll
##lle
##lli
##llll
##llium
##orld
##enne
##edo
itch
##arming
##isons
##eters
##itel
##itating
##itational
##asher
##asma
##ayed
android
hee
##erella
reek
rewr
whatsa
beacon
meurice
meyers
hacks
##leigh
##idian
##gher
##ldom
shiny
##kees
fors
forming
knot
stain
static
stored
lig
lib
##chn
##chach
##chai
nood
nobility
##amous
##amination
##entennial
cans
##urst
alloy
wantin
##rive
##ricks
chau
chel
sug
sung
suicidal
sushi
prest
prank
upd
athe
anya
##ieg
##ppin
defect
frock
sau
sag
manic
manson
manpower
lovin
looting
plum
plag
plasma
goodman
guided
exh
exley
hisself
##oler
aroun
##astas
somers
##endon
##ablo
##obs
##obar
##obie
##earing
spur
spac
spunk
spilled
spilling
brom
twink
mayonna
maynard
mayfair
carrie
trashed
neverth
nevermind
clum
clap
caller
##tyard
peer
peps
quaint
moi
moist
byp
muham
killings
##elity
marc
marce
margin
coil
coca
##agl
scour
scuse
scuff
scobie
##issance
undoubted
dayton
underway
sordid
grim
gramp
nightclub
rocco
wah
wage
imitate
afterward
putz
poets
##asser
elsa
olds
##udges
cran
crad
crate
couples
swift
hoag
shitload
realise
greatly
hipp
peril
perverted
##urned
monop
courtyard
missy
fled
flam
flint
asset
understandable
supposing
handbag
phaser
##eph
disbar
dispens
disregard
##quin
##quent
##quate
stub
trains
traces
crab
showers
##mani
housekeeper
serp
morals
morlock
##shots
resid
resolve
insides
proxim
parallel
boll
boating
bogey
##acles
slid
slugg
slugs
##orro
recoll
charms
charging
warhead
cheval
##phem
##onson
gladys
cleans
harp
founded
inval
invade
##ettle
##lesley
farce
farrag
bark
barrack
endorse
pappy
cuttin
bringin
##ultane
##ancies
picket
edna
editors
openly
fifties
thirst
eyew
excal
halfdan
booking
diem
darcy
darlene
gunshot
##aires
copied
reluct
hitter
genes
obed
grable
bulls
simultane
jez
password
shuts
infinite
colson
signatures
significance
delac
delaney
##ussion
shooter
stevie
starck
stargher
##nec
##neil
##oko
retards
snack
admissions
robins
salieri
##uces
fulla
##ippy
petition
petals
array
filing
##liner
subl
suburb
majors
hangs
uncon
muscles
proph
ladyship
richer
statements
extrad
classical
profound
ballplay
visits
erased
foolin
keitel
owww
adds
addiction
addicted
psyched
shallow
squash
imagin
merit
operative
walters
pastor
condoms
condesc
privy
repay
reply
##ocity
##gann
laughin
musicians
stepmother
posit
##zzi
judd
##brand
pressures
viruses
virgil
bases
fees
valerie
cryin
involves
blueprints
largest
stricken
irony
##going
##govern
shorts
solved
solitary
bribed
slowed
garland
jung
brainerd
bustin
cabins
cabbie
motives
advances
baths
denial
denham
dennings
lays
layer
layout
sanderson
witwer
catast
cashier
formula
deviant
ellis
commune
detected
jameson
thirds
alexand
doubted
escobar
halle
duncan
verify
allowance
limping
limbs
posted
postcard
germs
geronimo
accounted
fishy
macneil
castles
estates
amazes
prepost
hideous
frenchman
angela
louisiana
##ructor
failing
nosey
hooks
masc
sailed
gasoline
##guer
draws
territories
bandages
holoca
correctly
##bbing
mcgann
talia
julius
raining
rainbow
gifted
rubbed
expelled
rivers
lambs
##ronic
melted
hostility
males
arrival
griff
##minate
berth
bermuda
technician
gimm
randal
generator
generosity
projection
pretends
successfully
lindsey
raping
pathological
##affrey
pools
banned
ratan
scottish
gordo
##eteria
suspend
galbra
furthermore
hawkeye
mccaffrey
hamlet
jealousy
freaky
describing
tours
freshman
sporting
gaming
gallant
sinned
mailbox
assignments
pocketbook
toothbrush
scripts
execute
gayle
unharmed
magnum
quoting
emotionally
20th
cartel
jonas
##ermo
butterfield
targets
ledge
poww
strangle
unlucky
renard
shifted
rhode
concentrated
concentrating
variable
variety
cultural
mathilda
dumber
improv
gains
competent
unsolved
acquis
panty
webber
betrayal
implications
montgom
foreigners
hayworth
attempts
rescued
revenue
##ooooo
ducks
pizzas
##arajah
naomi
applic
chewed
spooks
pitched
fruitcake
educated
lipnik
cavity
candid
constantinople
reviews
pedro
pounding
whatsamatter
temporarily
franch
divide
challenged
oaks
savior
occupy
raccoon
drums
methodology
mantini
miguel
semple
aggrav
cloaked
declaration
distracting
distracted
corey
nikki
hauling
prevented
tigers
substitute
privileged
biological
bolts
deemed
premium
obligation
jenkins
pentangeli
peanuts
documentary
luci
##itarian
casualty
tutor
octopus
beliefs
strawberry
criticism
gravitational
isolation
shouting
genuinely
23rd
tatiana
nominated
skeleton
neurotic
plotting
unreason
prosecute
cinderella
egon
opium
stalking
restraining
republic
swede
soviets
gorilla
tsch
praise
exaggerate
exploit
confirmation
weighs
fiddle
whitney
possessive
merciful
assassinated
mushroom
external
lemonade
parrot
consumed
landlady
inquiries
accepting
regional
cautious
maharajah
improvement
aspirin
crafts
simpler
corpses
initiative
dartmouth
gazzo
cockroach
rhyth
correspondent
elders
luxury
unemployment
anticipate
efficient
tumor
dolphins
enlighten
housewife
daryl
daryll
shangh
noooo
sculpture
slayers
oblige
tahoe
mayhem
resemblance
overwhelming
bahamas
renault
zombie
sausage
enlisted
drooling
emptied
figgered
saddam
galaxy
challenging
category
bicentennial
dreyfuss
tidy
repressed
nevada
resurrection
glamour
metropolis
behaving
inheritance
biblical
gilbert
krem
kittridge
grandchildren
propaganda
misdem
incompetent
bodega
cinema
fetish
jinx
##horvich
whittlesley
anatomy
apprentice
cafeteria
enthusiastic
igor
yogurt
nekhorvich
teasdale
infirmary
postpone
macleod
archdiocese
cactus
cincinnati
hinkel
mirtha
mordechai
venezuel
beetle
beggars
##anthrop
chisel
focused
harmsway
preoccupied
questionnaire
consuelo
juvenile
balboa
bellerophon
injustice
##ukkah
kobayashi
hypocrite
extraterrestrial
beryllium
klaatu
kafka
rorschach
snyder
##holland
mayonnaise
nevertheless
pepsi
undoubtedly
disbarred
recollect
farragut
holocaust
galbraith
montgomery
54
57
79
7th
9th
az
aston
aches
batch
bord
bending
ci
cb
cone
cess
cuss
cages
crick
cement
dang
doth
dense
dimin
diction
ez
eee
elly
eaves
fitting
fences
gap
gild
gower
gork
gaw
gaze
hir
hens
huckle
ib
ick
ivan
jest
jup
jeth
jugg
jules
kg
ki
kab
kint
kens
lh
lur
leel
lath
lull
lured
luh
lanes
ming
moo
mos
mates
mute
moust
ness
nour
niet
nyl
ping
pak
pater
pors
punt
pablo
rhin
rites
rushing
sz
sly
ting
tes
tad
tess
tul
tep
tents
tipping
tiring
uk
uc
vous
vert
void
wop
wain
wages
wann
wager
wishing
wolves
yoke
yarn
zur
zach
zaius
##rough
##roy
##uity
##upt
##ujah
##tu
##wit
##lic
##eers
##made
##mute
##maker
##mobile
##near
##nier
##nne
##nuts
##hol
##horn
##haven
##gence
##ienced
##pea
##pie
##pey
##vol
##cill
##cers
##dock
##dream
##driver
##bies
##bach
##21
##jour
##jesus
thx
##oux
youve
youse
##aters
##onious
##anny
toad
token
wham
whiff
whoops
anom
ansel
anastas
##eder
##owed
##arians
##isure
##isms
##etry
##itis
##omon
##ask
inoper
anderton
hep
heist
rect
rept
reef
bees
bebe
beamed
weiss
weaken
weeds
doom
dove
dost
doomed
dobis
##idated
##sta
##sten
##stri
##stated
##ghead
onboard
##lda
gozer
shes
shiv
shaken
shipped
shattered
##kell
##sea
##aler
forge
forum
donkey
knack
knicks
sta
stard
stear
stans
stated
stove
stages
stagger
lipp
liability
##chs
##chen
##chron
noted
notch
##adda
noc
noct
noel
noses
nobles
##anter
##antages
##entin
##ented
##entive
##eek
canv
canned
nept
nelson
soy
socially
soaked
getty
abra
allan
justify
shemp
chal
chant
chink
chey
chub
chlo
chipped
chipper
choos
chaser
chorus
howl
pruss
upright
upstate
thinker
##icides
##iciency
##raved
##rained
worthing
dement
deuce
decker
dejesus
##una
frat
##acked
seeya
##oreen
##ilate
managing
loot
loft
plun
ohhhh
timers
##ulet
##ulum
sears
seldom
##ifix
##ifiable
exquis
hiss
arb
arbit
armani
compress
compton
##astly
willa
willard
backst
##aka
meaner
##obia
##nais
##nace
spat
hadda
haddon
brent
broth
brides
brute
##ittance
twas
twig
tweak
##icker
##ickers
carc
carmine
##ouss
ames
amar
amish
amado
amigo
troy
truce
troph
trooper
agony
agenda
clive
cluster
clinton
callow
leisure
enlar
##orted
##few
##feld
peg
pep
pegged
quell
quentin
droid
drastic
##emore
##ements
unle
unite
unident
unhe
unrel
##oya
blas
bloss
blames
blender
muh
mund
mugged
intoler
##elines
##elujah
marzz
marcie
buggy
coins
scur
scots
scroll
scales
scorp
hub
hubert
daydream
underdog
wrench
grudge
rogue
waal
waist
joints
siren
lifeform
afterlife
plea
leaking
leaked
thrilling
elm
elit
elton
##udd
probable
advis
swings
swarth
swallows
partly
partially
hippie
perk
perkins
perception
placement
monro
missoula
flown
playwright
##ordi
phasers
##athon
disk
disallow
dislike
wouldnt
##quer
##iffer
travers
crappy
##manus
headin
lav
lacer
##proof
stressed
strader
strasser
insol
insub
prover
proce
pretended
slur
slag
slime
slipp
slides
sluts
sledge
recip
hardcore
contaminated
##ignant
diap
diving
divisions
warne
warmed
warming
meetin
sonuv
cheque
cheesy
##roix
breeding
glum
businesses
finnegan
livelihood
readin
readout
##ggered
harri
harlem
triangle
pref
##isters
menu
tenor
survey
dripping
schoolboy
barbie
endure
pajamas
wonderland
holder
sounder
metall
edwards
rests
##lington
excl
decoy
untie
monthly
hurtin
##eeth
evolve
##ibu
##ibur
##ibble
skies
skins
eighties
seth
awe
awaken
simulator
##azza
jeans
heartless
##erto
##ivate
infamous
trustworthy
exploded
##onto
syna
dreamt
consig
consol
console
consume
consarn
delic
delta
geography
geographic
geordi
instructor
firefly
fireworks
sorted
importantly
buyer
certainty
##ups
admittance
elekt
salmon
##ologically
rider
burying
burbage
burrit
sentry
sentences
eyesight
deform
patty
esper
arranging
millionaires
curl
curfew
singular
##apeut
redeem
draggin
filmm
filiba
sami
wearin
driveway
hangover
uncont
uncomm
builds
presidents
props
studs
reflection
gladiator
transf
visions
visited
impound
impost
meds
smallest
smallville
trainer
laurel
seller
specialist
losin
felicia
favorites
darkest
humanly
nickie
marking
throwin
##cox
condo
flyin
flynne
##oculars
disappointing
costa
pleasures
fixes
penance
penfield
floats
judges
baggage
palermo
rosemary
presses
apartments
mischief
valium
demise
strangely
illum
smelling
##efur
striker
boris
mentioning
birdson
solomon
packard
packages
suitable
juneb
damages
norweg
sherwood
sheronda
##uffy
bathe
crossroad
denby
sandefur
weirdest
cashed
arrests
cardboard
communicating
silicon
daft
##iliary
appreciated
violating
vanilla
bleeds
hallelujah
camps
occurs
sadly
sadie
lads
laddie
oppress
moderation
##cutio
sanity
macready
macaul
casting
##inois
furnace
aviation
settling
dumbass
##annon
louisville
royce
photon
masry
gaskell
antib
constable
sensor
sensit
sensual
bands
seafood
washes
speculate
clara
clarendon
mcgovern
mcmanus
blockbuster
frightens
ghastly
missionary
examining
leeches
portable
sleaze
existing
intrusion
collector
juicy
melod
malibu
therapeut
gripe
janine
supports
cracker
cracking
crackpot
dancin
creeper
berries
lynd
matched
roughly
licensed
lasers
stocks
stanzi
paths
chickenshit
motherfucking
banister
banquet
ramos
##ophren
ignition
cyl
cyril
scarecrow
booby
voltage
lifts
domain
domination
rumour
venus
characteristics
borrowing
kayleigh
mccall
ryuji
releases
severance
swords
sneakin
gallon
moody
storms
fridays
revol
sociopath
remained
corned
kris
reactions
immense
immature
poisoning
poisonous
189
punct
punishing
bums
chopping
throats
cooperating
funded
bedrooms
sexuality
snappy
bulletin
butterflies
blankets
silverstone
funerals
ott
hillb
miraculous
stinky
lisbon
strangled
pinkerton
shielding
illegally
mortals
peek
traded
stability
cultures
falcon
mathieu
lectures
dumpl
fingert
##offs
impro
imprison
chateau
tuesdays
denton
ronny
tabl
tails
tailor
debut
claymore
amounts
railway
unsub
beauhar
antiques
implied
ferry
mackey
wyoming
sophom
twisting
##oooooooo
wintermute
paden
stretched
cheeseburgers
regardless
bounced
grayson
applications
novelty
critics
kimmy
pitching
annex
replacing
automobile
osgood
rancho
recommendations
qualify
pursued
psychiatrists
cruising
cruiser
hesitation
blasted
##blers
concealed
joshua
picass
initial
beasts
deduct
dedication
##weil
clinical
passports
cerebr
whistles
hacking
kinnear
savages
occupation
hanukkah
watson
actresses
networks
niki
sewer
fortunes
ozone
ruthless
wadda
poems
scraps
grasshop
razinin
##strong
warsaw
humpback
alfredo
cocksuck
bogus
beeper
athlet
essence
injected
imperfect
dismant
syndicate
detonate
gabrielle
yuppie
neutron
vegetables
scams
recruit
decorated
dugan
pupil
vicinity
##omaniac
defeated
episodes
kurtzweil
egghead
exploring
auditioning
telegrams
altar
sweden
dictate
munro
yankees
##putin
sequence
groceries
synchron
heavier
liverpool
traumat
faintest
gynec
whitman
stirred
strategic
interfering
skirts
blackmailing
mercen
mercury
gabriela
dubious
flooded
electronics
diplomatic
compensate
carrot
lazar
inspiring
commodity
750
bruno
arrogance
translate
perpetual
arab
fulfill
sankara
frustrated
gulls
penetration
penetrate
hysteria
specimens
baptized
vibrations
carniv
leadership
hallucin
hallucinations
demonstrate
tattooed
linen
prettiest
aaaah
biscuit
rooft
stairwell
staircase
clicking
treasury
encouraging
accompan
aaah
binoculars
grenades
putterer
remarks
crucifix
advertising
drifter
townsend
consultant
departure
ecst
jaguar
rasp
rasputin
flavor
crazier
folded
excessive
evacuate
transmitted
impersonal
errands
verdict
hydrogen
precaution
penitentiary
hendricks
telesc
stimul
intriguing
disconnected
destructive
continental
ooze
##hyd
thighs
hammond
wholesome
seminar
braslow
kidneys
comprehend
obscene
cyclops
stabilize
asteroid
theoretically
chooses
fronkon
carriers
carriage
graphic
earthquake
earthquakes
ordinarily
cappucc
ruling
wuddya
inexper
convertible
enhanced
schizophren
inferior
souven
anaesthetic
geoffrey
deprived
catalog
optimistic
aubrey
dorsia
epidem
korean
nipples
tuxedo
zulu
emmett
handcuffs
discharge
artificial
suffocating
mcgill
degenerate
magneto
microscopic
bergman
kurten
udall
aspects
chastity
plutonium
seizure
quartet
marvosa
parachute
supermarket
astronaut
omelette
reinforcements
authentic
gulch
ketchup
algeria
underpants
incompl
liebkind
cowgirls
bayonet
hitchhik
stenographer
alleged
alligator
gunderson
marseilles
cochrane
eminence
hunnert
database
expendable
skeptical
abducted
resourceful
auxiliary
loneliness
ounces
sierra
spacesh
clumsy
muhammad
grampa
monopoly
morlocks
bollocks
excalibur
simultaneously
delacroix
suburban
ballplayer
preposterous
powwow
unreasonable
rhythm
shanghai
misdemeanor
eavesdrop
gilded
gorkon
huckleberry
kensington
leeloo
wainwright
wannab
anastasia
dobisch
stearns
lippman
chloe
exquisite
haddonfield
unidentified
marzzone
monroe
disallowed
slippery
junebug
crossroads
macaulay
beauharnais
cappuccino
43
59
56
76
84
81
8th
ai
ave
ail
bach
bav
bash
bied
bows
baff
binary
bomber
cp
ching
cull
cates
cens
cuc
cider
crib
ciera
ctu
dm
dj
dome
dic
dus
dup
dye
delly
dazz
doreen
eu
ech
eel
elder
fou
ful
fey
flem
fists
fury
fender
fainted
gav
gents
gender
holog
hittin
hilton
housing
ire
jr
jorge
jorg
kook
kul
kos
kai
kung
kenn
kamins
kiki
ls
lan
latch
louse
lash
lins
liner
lomp
mh
mb
mab
mose
nip
nug
nintend
nilsen
og
ore
ome
pact
pav
pont
poof
pester
pending
pomp
ration
rue
rents
roul
rik
races
sith
sart
sate
sans
sigh
tine
tac
tai
titty
vat
vult
voil
vivid
voted
voting
ww
wink
wuss
wimp
winton
yen
yikes
zu
zh
zer
zin
zow
zap
zebra
zorro
##rer
##rates
##uder
##aved
##tore
##kis
##sch
##sons
##mott
##mama
##nut
##normal
##han
##hall
##hist
##gado
##iour
##iences
##pil
##puss
##pired
##vere
##vation
##vial
##cre
##call
##cine
##dick
##zis
##zia
##zens
##fell
##fits
##flow
##yman
##yards
##bus
##bab
##bound
##bbe
##bish
##22
##jay
##just
##jac
thal
threes
##oure
##inis
##inty
##inals
##onal
##onder
##onzo
toont
##ingham
##oria
##orient
whim
whop
##eny
##enas
ante
itís
##arin
##etting
##etrack
##itness
##aska
##reed
##real
##reides
##recy
inad
inau
inning
inez
inhib
inquire
##uting
##ayette
hex
heid
heating
reap
reese
reagan
rewind
whatnot
beery
beyn
beads
mellow
megan
mebbe
hap
hab
dogg
dozens
##stak
##stead
ons
goble
goals
goering
gosp
shm
shush
shitting
##keby
##ali
##alysis
##ima
##imated
##imited
donor
donation
donuts
kneel
liby
lionel
##chi
##chon
noticing
wastin
waski
myr
nos
nov
##ustomed
##ithm
##amine
##enteeth
##eee
##illo
##urf
##urai
##alled
##allister
##outing
necks
nebr
theyre
##ional
soak
socc
getaway
abilities
allie
alliance
outr
outwe
outcast
outburst
asc
shepher
chu
chile
chipp
chino
chlor
suez
prol
prair
prying
##opol
upgr
upriver
atreides
##icies
##icators
##icuddy
##andi
veil
##estro
depl
degr
deja
deleg
##uns
##unes
fren
frantic
herald
heresy
whyn
alot
alison
##ilian
##usal
##usive
##uscript
saig
mank
mann
manages
manray
manhood
managers
manuscript
lobe
loony
logging
usin
pliss
pliers
plastics
##igible
timid
##ulses
##ulnerable
goodies
semen
sections
##osse
##ifact
##ifred
guine
guides
exert
##olism
arent
arbor
arlington
comics
comments
##vene
##venworth
comeback
##aki
splin
spades
spears
talker
bris
brod
brake
twit
##icking
carib
amp
tron
trot
trent
trough
trub
truc
trumbo
clob
clips
leer
lever
leeds
leverage
envelop
enroll
overst
overall
overly
overest
overflow
peed
quid
quittin
drilling
##emont
unin
unim
unner
unpar
moor
bloke
blushing
intruder
##elin
marlowe
marathon
buick
cog
coz
coal
cokes
##agra
scab
scagn
scanners
##through
hudd
hullo
##ected
##ffle
evenings
##urek
grin
grunt
grotes
greta
nighting
nightfall
nightcap
roaming
newport
joad
jolly
helpmann
longing
longfell
lifeline
##acher
rembrand
poetic
##dermott
leavenworth
##assed
##tail
elster
crest
crates
croup
cruz
crashing
crumble
probie
cougar
ade
adoles
adapt
adolph
swap
##pto
mait
maestro
##ossal
miniat
homeboy
lotion
hier
hijack
peru
perj
perch
perfor
uhn
##urnal
monaster
monarch
monitors
acute
badges
fling
faw
##into
handsh
##ordination
careers
##ogast
##ogical
##atha
runners
secrecy
hearse
disl
disad
disorient
##qual
mighta
traff
traitors
womb
minding
seraf
morality
morbid
lacr
##eye
##pring
stray
camelot
schae
schneider
insin
insens
momo
paralysis
worldwide
tonic
bozo
##acle
slop
recy
recre
charitable
contem
contro
contamination
diab
warrants
mattered
commend
committing
##uba
funk
funky
sonar
cheery
cheats
##roc
sixpack
gloss
policies
seeming
finland
accustomed
foundations
trials
trivial
invoke
invaded
invulnerable
composed
##avo
capone
tens
tenant
stuffing
jacked
jackass
jackets
jackpot
farming
endings
pais
cutter
shostak
pickle
##ailing
presently
preserved
fifteenth
countess
countless
countdown
decline
decipher
darien
darwin
breakin
checkbook
prompt
lawford
evasion
##ibal
billi
billing
millimeter
millaney
hitman
skiff
skyn
specially
honors
obi
numb
questionable
##ugal
jeh
passive
##aho
##ahad
##ivated
colour
lighting
explicit
syll
syrup
indication
indisc
considers
delir
delbert
delhi
delgado
factors
incest
inciner
dinners
honeythorn
depinto
watering
watered
watermel
benes
benson
discred
buyin
##apper
retro
sneeze
snooping
forgery
collapsed
salute
salzburg
##ucon
burgers
defence
defended
grandmama
regen
regards
regulation
touchdown
artifact
petting
esk
singh
singles
suspens
winners
alongside
conclusive
concussion
concannon
legacy
##ushova
filters
samurai
##soe
magnes
hangin
uncles
cleaners
saturn
midst
greenteeth
clearer
clearance
profanity
straightening
refill
refres
distinction
ballast
ballistics
transp
transcript
transsexual
##owski
visas
impot
impulsive
impulses
buckle
buckley
##tenfuss
frontier
colds
##riced
keating
felon
centers
squeak
darker
##rament
##ramatic
typing
merk
merci
merrill
mercutio
popping
wales
##coats
fairlane
caul
caves
locking
repet
repell
reprie
repulsive
superiors
disappro
covert
dougl
##fortune
##zza
##zzie
judged
##brook
##bruck
casket
casinos
treaties
considerable
stickin
misfortune
smarts
feat
valued
clocks
burnfield
lords
illinois
growin
lara
stripe
stripped
stripper
affl
irreg
solitude
hopper
practices
drunker
luncheon
garlic
rockwell
eyeballs
boatman
publicly
advantages
cataly
formality
armies
##bedded
toronto
cardiff
cardinals
communic
lowe
lowry
camping
digg
digit
greenhouse
niner
fatig
belonging
prodig
produced
rollo
fishin
acceptable
directive
empath
hyman
hydra
##cutt
sanitation
healy
macdonald
investigated
esteem
southwest
suggs
equation
particulars
settles
wildlife
deliveries
##ueless
fails
marries
sails
sailors
labs
antig
definitive
##gued
sensed
drawers
yellin
fitness
holmes
claremont
mcdonald
mcallister
mcdermott
blockade
talents
vaccine
ghoul
admirable
pinot
pinback
pinched
sharper
sharpen
credential
fellowship
rubbish
martinis
franco
exceeding
renting
##fucka
looseleaf
slew
baton
batty
batting
collective
panama
melissa
hostess
malt
malaria
sarris
criminally
janey
crackers
oddly
cocked
cockpit
objections
authorize
bala
bodily
bodhi
bellev
agreements
assistants
cooped
archive
archae
generated
projections
tita
puerto
scarf
flights
speeding
lucille
ugarte
emergencies
satisfying
switches
preference
bonding
rams
olives
angora
##etera
boobs
galahad
volumes
hawthorne
provo
provides
providing
mccay
adamant
freakin
attorneys
wilkins
wilshire
regularly
salesmen
ethi
accessed
snowball
mutilated
sneaked
fanucci
galley
gallons
josé
sinatra
diseases
kirkeby
immoral
immunity
approaches
corrob
punters
engineered
matin
##gaard
buffet
pairs
witchcraft
expressing
appointments
mentor
logically
cartwright
chapin
chapel
chaperone
silverware
punching
behaviour
crowds
fiber
junkies
naples
pumped
unlimited
floris
##nnnn
surfing
rhym
injunction
confirms
spelling
typically
pillar
whorehouse
primer
safest
eleventh
hypn
rushed
120
##oxide
canceling
entertained
unsure
lesion
mileage
experimenting
circumstance
scratching
scratched
bangs
internship
epile
deckard
montoya
insults
influenced
foreigner
cherish
embrace
haydn
deceit
deceive
priorities
diesel
mulholland
reservoir
disgusted
paddle
pizzer
despicable
pours
liberal
librarian
flashes
inventory
bailed
dipshit
wandered
whacking
kimball
replicators
oskar
ribs
tagged
chinaman
qualifications
avenge
predator
predicted
deacon
eti
ettore
kuato
vitamins
deranged
conceived
virtucon
falsely
pedal
peddle
ragged
wickwire
philosopher
dedicate
gathered
pacif
##namon
buddha
temporal
tassel
tends
tendency
marching
surgeons
hacked
attendance
sacrifices
steaks
sacrament
clifford
scanning
scanner
21st
dyke
##liere
nobleman
drumlin
intentionally
palmdale
adjusting
adjusted
aiming
bumps
miggs
nikes
nikko
nikolas
puffy
remarkably
patrizia
privileges
chamberlain
aiding
rudolf
wadn
spectrum
academic
paradox
premier
obligations
jennie
oooo
ooooh
rebell
platoon
platinum
scrawny
booty
bidder
##strom
sparks
sparrin
resigned
1967
hitched
wiser
deliberate
increasing
concerts
5000
nanny
coordinate
criticize
greeting
multi
nuwanda
imperative
shouted
vegetarian
consequence
memorable
memorize
greece
greeks
wraps
gramm
tonsils
achieved
lonnie
nomak
skelet
unaware
mythology
sweeping
colonies
prosecutor
restraint
manifested
helmuth
relatively
dalton
gorman
muncie
tsavo
measly
guinan
shoveling
exploitation
corpus
econom
molest
##escu
mocking
penguins
severely
egyptian
toxin
rearr
vaughn
extermin
sketchy
sketches
consumer
retrieve
bondsman
puppeteer
##ffeur
compensation
compensated
carrots
slammed
durden
lenin
lenore
ingenious
worships
brewery
infantry
cursing
arabs
fulfilled
fulfilling
kraut
vouched
velocity
frustration
swanney
expanding
baptist
hindus
zeke
##rusted
guilder
amateurs
polymer
stubbins
purchases
sleepless
immortality
neutralized
rituals
kelson
kelvin
##girl
inhab
weeping
boiler
diagnosis
harassment
metaphor
metaphors
indulge
initiate
spectacle
dismissed
achievement
sodium
ensure
quantico
cramps
coupon
georgina
treasures
romulans
specifics
navigation
elden
##court
overheated
advertis
transmitter
brigade
dispatches
acknowled
cinnamon
tumble
evaluation
evaluate
transmissions
electrocuted
hypothetical
manufacture
cortex
yakushova
retainer
burgund
rehabil
rashid
tahiti
styles
demolition
motivation
negligent
negligence
mtv
trumpet
diversion
calculate
contradiction
wudan
sultenfuss
worshipped
hoffy
tyrone
dishonor
bikini
cauld
lagoon
loathe
spacedock
clutch
scoundrel
scoundrels
accusation
accusations
transporter
transporters
insecure
unrealistic
bimbo
rasczak
spontaneous
mayflower
troopers
paramount
glands
obsessive
mcintosh
repeatedly
microch
cotter
siberia
##chmacher
pronounced
tropical
overpriced
johana
swiped
phenomen
disneyland
reflexes
transplant
neglected
electrician
observer
variables
ultimately
dahl
dyslex
##iffel
groovy
newsweek
emphasis
lafayette
sniper
enclosed
mckinley
battalion
obstetrical
masturbation
bryant
bakery
dottie
russell
bridges
triplette
infatuation
purgatory
exceeded
excelsior
argentina
administrator
pyramid
bolshevik
oeuvres
flexible
forsaken
noodle
chauffeur
somerset
hoagie
chevalier
eyewitness
mascara
improvise
franchise
venezuela
cricket
dictionary
jupiter
jethro
kgb
lhasa
mosqu
moustache
pakistan
porsche
szpil
teschmacher
inoperative
neptune
abraham
cheyenne
choosing
worthington
arbogast
calloway
blasphem
proverb
prefers
synag
consigliere
uncommon
sensitivity
therapeutic
cerebral
traumatized
mercenary
telescope
fronkonsteen
mcgillicuddy
incomplete
spaceship
fleming
ireland
jorgensen
kulok
kaminski
lompoc
nintendo
omega
zowie
toontown
inaug
heidi
nebraska
soccer
outweigh
prairie
saigon
plissken
caribbean
scagnetti
grotesque
longfellow
rembrandt
miniatur
monastery
serafine
insensitive
shostakovich
skynet
suspension
magnesium
douglas
irregular
hydraul
credentials
bellevue
rhymes
szpilman
66
68
74
71
700
95
ald
aver
ary
aus
apt
aint
alder
bing
bere
bau
bick
braid
bork
bens
bung
baza
cc
cds
dia
dorn
dames
dern
della
density
ether
eich
ester
ehh
ebby
fay
falk
fives
fading
fumes
fowl
gator
geller
hh
hoth
hoof
hints
haste
jp
jor
jee
jive
jib
jug
jello
jumper
jurek
kon
kam
kittle
kool
kamp
kaz
katherine
kettle
koko
litt
lother
lub
latt
lyle
lana
luv
lumber
mook
mish
mash
mio
merv
mode
makers
nes
nast
nada
nifty
ora
ooops
pd
pess
pau
pough
pows
poul
porth
pots
pager
puls
rou
rall
ruck
rach
rav
rating
ringer
rache
rican
roust
sg
sill
tion
tic
tame
titt
tach
tuts
tippi
vu
vere
vort
voss
via
vial
vox
vlad
wu
wong
wider
wanda
wrig
xan
yi
yay
yur
yllo
yanks
zed
zander
zimm
zalt
##rist
##rational
##ught
##aan
##aith
##aci
##azy
##acious
##tical
##wun
##wig
##witt
##wick
##weal
##western
##wurst
##lac
##lett
##lier
##konn
##mies
##net
##nna
##nation
##hl
##hot
##hart
##hma
##hof
##gi
##gf
##gam
##gang
##gling
##groom
##gale
##iak
##iates
##iago
##iques
##pan
##pay
##pic
##pike
##vi
##oi
##oat
##cas
##ccept
##cular
##cases
##dad
##dly
##dish
##zio
##zai
##fi
##fir
##fun
##full
##fold
##furt
##but
##bust
##boo
##bble
##bah
##birth
##bilt
##bishop
##banks
##16
##jor
##jee
thump
thaw
youí
##erit
##eroy
##inform
##inburgh
##atus
##ono
##onents
##onne
##anim
##anza
##analy
toons
##orf
##orin
##orious
##orhe
##orius
whoop
whining
whippin
##enous
##esher
anus
anita
##arations
##isl
##eted
##itus
##itud
##itives
##ompress
##omination
##asive
##asco
inade
inquis
##utch
##ayin
##ayas
andr
andre
hein
hewitt
##ereign
weve
mein
hag
hale
haze
hailing
dole
doork
doss
dooms
##lector
##iddy
##stop
##sticks
##ghan
onion
onna
ish
isla
goo
shi
shill
shri
shook
shite
shud
shines
shaked
shrap
dong
stip
stint
steen
stared
stature
stained
lien
liars
lili
##ceivable
wast
noose
nosy
##irable
##amm
##amie
##among
##amish
withstand
cane
canoe
##ooo
##urg
##alling
##outhing
sob
solem
abol
abide
abnormal
didja
allright
allah
##tered
outright
output
##odel
##rils
asgaard
##heres
##ndown
chas
chir
chol
chills
chimp
chaste
choking
hows
sums
sula
prud
primate
upl
upham
uphold
atone
##icism
##icrous
##andra
##ppas
##pple
##rapin
whos
##estion
deanna
deird
frater
fritz
frogs
herm
hersh
alf
alias
alonzo
##usible
##arten
sauc
saks
sabb
manure
manfred
orton
orgy
##geon
lolly
logged
uss
platter
##iger
##igma
##istical
##ucking
seize
seals
seism
semit
seeds
##osin
##oslov
##ifting
export
arlet
artery
arithm
##atement
comical
##astically
##ende
##endrick
##abor
willy
backtrack
##aky
##akia
meanest
spud
sphin
spitting
spills
conj
conan
conting
converted
talkie
brus
brouss
everytime
mayol
carat
##oused
trout
##apy
aging
agencies
agatha
cler
clam
clash
clover
clueless
leans
fucken
fuckhead
enfor
workout
##felt
overwork
overrated
overpower
pem
peas
afghan
quill
quits
unatt
moj
blues
intra
intensity
##bering
marl
marm
marily
marcel
marguer
bugged
coon
scatter
wonders
undet
undies
hugging
##ffer
evenin
yearbook
##ishes
giveaway
grouch
gretch
grimes
rok
rog
rolex
##actic
longsh
imped
imbal
beforehand
sirens
pleaded
remov
poach
polly
poached
poked
##irez
throb
thrills
kindred
eli
elite
##udel
##izers
cram
crises
cranes
adap
parting
##ptuous
smir
smurf
mae
mao
maim
boycott
shits
minnea
realm
realization
realizing
realistically
hiking
perce
perrier
perverse
perceptive
understatement
monte
flux
flashing
flask
facial
listens
handker
handbook
##oga
##ogy
##ogan
philly
phara
phoning
buss
busboy
disability
trav
trapper
craps
crapper
crazed
motherhood
##mans
##mances
tomm
headline
morally
morons
morrow
lacy
##eyed
##sha
strudel
resolution
resulting
resounding
interru
camels
insul
insured
inscription
prohib
wasnt
parks
paramed
paraly
parlay
parais
parsons
booted
##acent
##acola
##mmy
leftovers
saws
sawyer
slate
slump
slush
slips
slinky
sloppy
weekly
recite
##ignon
appra
diana
divert
dioxide
commiss
funboy
sonris
##plement
huron
##rost
turnpike
brean
sixteenth
glow
glau
glare
businessmen
lively
watcha
watchman
walkie
accents
telem
harmed
harlan
harcourt
harkonn
terrace
payne
ahab
ahem
tripped
tripping
composition
premed
##avier
capri
farley
barons
barric
barging
barrington
barbat
pappas
wonderfully
giul
giov
gibb
holden
holders
shoves
jesuits
##ails
metab
edith
editing
edinburgh
openers
sleepin
restroom
thirteenth
thirtieth
excused
pricks
prizes
standby
decompress
hott
booker
bookkeeper
daring
dared
apache
beauties
breakthrough
figur
evans
billings
mills
relat
relate
youngsters
skipping
skippy
skrapin
eights
sethe
genre
genetically
obit
bedford
bedbugs
graf
graft
gracie
numerous
awa
frankfurt
##uga
simms
##azar
jezzie
confide
confisc
earp
earring
##ertation
##erties
shutters
##iviere
infinity
colossal
##retta
explodes
humph
humming
index
bloodbath
delbruck
shooters
steamed
corvis
geomet
geologists
stark
starvin
starring
starbuck
incur
incons
incoming
detach
detention
expectin
firehouse
firepower
depot
captains
discon
newsstand
##ouche
followers
lieu
powerless
##uctive
strait
snif
robe
robot
saliva
salazar
messin
sentenced
fuller
calib
defy
deficiency
grande
grandad
registry
winding
windthorne
murdering
pets
petro
espress
arrows
curric
painless
wines
winters
winifred
concorde
legions
legisl
##lination
submar
uncover
louella
raided
propri
properties
midwest
richter
extended
##otechn
refuel
refinery
refusal
balled
balloons
transpar
transaction
visible
impea
imposing
bankroll
destined
landy
trainee
##ricide
##ricular
erad
sellers
oww
nearer
entrap
centre
botherin
squaw
squares
humanitarian
tyrell
tybal
fremont
viking
markets
fastball
operated
operates
poppy
accidently
fairbanks
respir
cavern
caiman
danvers
maxim
topside
learns
counse
councill
##ocate
mouthed
superv
superc
superf
superb
supervis
kisser
doubles
doubled
##undant
personalities
##zzik
generals
juda
palantine
protects
casa
casy
##essional
sticky
courteous
miscar
misinter
honora
fezzik
telepr
##versial
conniving
swears
lariviere
##mingham
chickened
irving
irwin
irrational
shorthand
solving
hops
hopin
##iko
suites
bricks
lunches
enjoyment
rocker
rockin
rockets
damien
ticks
tickle
cables
motors
motels
destroys
turd
turks
birthright
wedd
acrob
letterman
armstrong
##boats
communism
englishman
borne
dai
daik
fearing
##enched
##iliation
viola
icebergs
boxing
doubtful
screwball
sadistic
digs
greenwich
greenhill
boardwalk
dunn
dunois
geeks
vera
belongings
rollin
posts
tempting
modem
modified
acceptance
continually
hyst
hype
hyde
macy
macaron
casts
tasting
congreg
cowan
cowards
suckin
furry
wildman
gardens
philanthrop
calmly
##bius
pardner
priceless
electra
quarre
appearing
physicians
masbath
miriam
laboure
bowel
sensory
pushes
recognizes
seaweed
seagra
boyfriends
divorces
auditor
auditions
audiences
henri
comforting
comforted
codex
pinpoint
credits
rubbing
expire
tighter
tapest
moonan
rental
lament
lamont
loosely
sleazy
traveler
screamin
northwest
melanch
faithfully
malicious
malignant
taxpay
##rophe
grier
griev
browns
browning
conditioner
janiro
organizations
swimmin
dancers
objects
objective
civilizations
blinding
blinded
duquette
##ofessional
berry
assisting
randolph
arche
generations
professors
risked
mixture
licence
licenses
titles
customary
puking
scarce
niggas
speedometer
bradley
braddock
rapes
rapids
stanford
clientele
originals
santiago
satisfactory
poolroom
##iatric
branding
urg
urges
urban
commonweal
banzai
ratso
ramada
rosie
combinations
volga
rumours
venza
##heads
##headed
fema
hawks
bugler
drags
bono
bonjour
sundays
wilbur
raban
mutt
developments
gamma
gallows
britons
quarterback
planting
plantation
whispers
diseased
msayin
##affe
creams
socialist
engineers
celebrated
bummed
buffoon
separation
scripture
magnitude
quota
quotes
maple
carton
cartoons
janeiro
chaplin
buttercup
carpath
periods
hillside
jabba
rodgers
albatr
blondes
enterprises
florence
pinky
processing
processor
rhian
rhodes
confirming
unfaith
dispose
dispute
disposition
pillows
pilletti
variet
variation
trunks
hypers
whadaya
loaned
briefs
briefed
latent
choco
seducing
wolfgang
coastal
coastguard
nineties
shhhhhh
unsc
unsatisf
acquire
productive
scratches
lorraine
underworld
implore
squadron
boundary
froze
barnard
tempered
haywire
hoops
wyant
psychoanaly
demanded
congressional
negotiator
theaters
shawn
shaved
##oscope
sweaty
asta
asthma
pornos
benefic
bouncy
fags
poured
explanations
escapes
dilig
mumble
shelters
popularity
lobot
constructed
automated
osborne
versa
financially
terminator
preaching
confessions
conducting
pursuing
dissent
dissertation
katka
voorhe
brooks
coincid
courageous
responded
##ohl
contains
container
containing
troubling
blasting
outfits
francesca
conceited
settings
virtual
peddling
##cracker
initiation
achilles
deduction
rifles
tentacles
habitat
pleasantville
farts
##knife
cereal
nedry
utmost
exercising
convene
bridegroom
attendants
kilo
cliffs
complimentary
hanover
individuals
envoy
railroads
nesting
sewers
laundrom
puffs
ranks
patriotic
announcing
bowlers
bulk
bulb
monitored
obligated
profitable
symbols
ilia
##holders
##draft
rebutt
unprep
bootle
glorified
editorial
documentation
limitations
analyze
cube
vicky
slaughterhouse
sparazza
enormously
1969
humpbacks
concepts
pollution
paleont
telegraph
16th
jahn
jaime
omigod
octavius
sovereign
bluffing
strawberries
essay
essentially
rawl
greyhound
lambeau
nyu
injections
weirder
legendary
fogg
wiping
disciple
disciples
leonardo
receptionist
werewolves
decorator
dynamics
naval
unaccept
rejection
myths
sparkling
interrupted
applying
diploma
siwash
sioux
tolerance
sumbitch
sprayed
symptom
##iasm
klingons
nitro
nitrate
nitrogen
tsk
sequel
wrestler
exploiting
drafted
observations
jayne
jellybean
molested
sofie
selected
selectman
guiding
mocky
granny
traumatic
prostitutes
inconceivable
survivor
fidelity
gypsy
nichol
##nowitz
carolina
bambi
dublin
lancelot
orphans
plumbers
exterior
queers
annoyed
jacobi
##immel
crowns
smugglers
eduardo
accomplishments
unexpectedly
czechoslov
durin
fuchs
ingenue
reassure
shapiro
brewer
multipl
perpetrator
cassius
##polis
nostrils
frustrating
##izzard
penetrated
feathers
baptism
caterer
catering
jawohl
windsor
sincerely
bunks
insights
diagnosed
harassing
metaphas
brazilian
indulgent
convicts
erection
crunching
memoirs
treasurer
constitutional
volunteers
insects
manifesto
bouquet
tangled
vaguely
##ravitch
bruise
roasted
emilio
crucify
elementary
superheroes
anticipated
titanium
##aaaaaaaaaaaaaaaa
kobo
ludwig
ludicrous
satchel
tucked
enlightened
unwilling
craziness
presumed
presumptuous
evacuated
patronizing
impersonating
verdell
mathematical
patriotism
nudity
stimulate
overdue
insomn
jeopardy
jeopardize
lizardo
mildred
pulitzer
dooley
stylish
wholesaler
waldman
motivated
cavalier
compassionate
asteroids
coyotes
ostrich
pensacola
##broken
theoretical
##keeping
##keepsie
allegations
allegiance
unprofessional
embezzle
morrissey
interpretation
calculations
extraction
contradict
estimating
maneuvering
overwhelmed
kryptonite
hazardous
ducts
pancakes
ruler
renaissance
vocal
vocab
arsonist
laxative
compartments
indoors
ambushed
challenges
birdy
birmingham
cunningham
fertilizer
revelation
pharmac
prejudice
prejudiced
absorb
squirrel
hypnotized
insecurity
fiancée
squeamish
plaque
plausible
offspring
mayflowers
newcomer
eloquent
crockett
parameters
appeals
muskie
mcintire
synthetic
klein
nauseous
valdes
vanderbilt
meadow
forensics
bloated
handicap
handicapped
dissect
trilithium
babysitter
snotty
bleeker
grifter
grifters
sarcasm
videotap
videotape
fundamentally
tranquilizer
bixby
rimgale
riviera
stuttering
lovett
##iguration
moebius
disarmament
intervals
christsake
evidently
bullshitting
indigenous
belgian
squeezed
marshmallow
hemorrhaging
crocodile
accommodate
ceti
dandy
dulaney
duality
pixilated
##zsche
chandler
blazing
adonis
stratford
recluse
hungarians
refugees
roadblock
bleachers
mcgruder
massacre
puzzles
embezzling
overreacting
bawling
norrington
patel
pankot
sizemore
xenia
yvonne
zimmermann
rewrite
chelsea
sugai
atheist
bypass
scourge
cradle
serpent
obedience
sublime
prophet
extradition
condescending
projectionist
applicant
kremlin
astonishing
henslowe
icky
lathrop
nourishment
nietzsche
zurich
nocturnal
canvas
plunge
carcin
trophy
insubordination
sonuvabitch
elektra
burrito
deformed
transfusion
melodramatic
cylinder
hillbilly
fingertips
improving
sophomore
picasso
deductible
grasshoppers
cocksuckers
inexperienced
epidemic
eavesdropping
biederman
cpu
cucamong
kosher
mhravitch
mbwun
mabel
nugent
roulette
sartorius
zuul
zinnowitz
beynon
libyan
shepherd
trubshaw
trucoat
clobber
nightingale
croupier
performances
handshake
lacrosse
schaefer
insinuating
controversial
paisley
discredit
refreshing
transponder
impotent
reprieve
catalyst
ethiopia
pizzeria
etiquette
sacramento
grammoo
advertisement
acknowledged
cauldron
blasphemy
aryan
bensinger
oracle
pessim
poughkeepsie
porthos
rallies
sgt
wrigley
zaltar
##itudes
doorknob
doomsday
shakedown
shrapnel
deirdre
sabbath
arletta
arithmetic
sphinx
broussard
overworked
marilyn
marguerite
gretchen
removal
minneapolis
handkerchief
pharaoh
interruption
paraiso
sonrisa
barbatus
giovann
skrapinov
espresso
curriculum
transparent
entrapment
tybalt
councillor
misinterpret
macaroni
seagrave
auditorium
commonwealth
albatross
unfaithful
voorhees
rebuttal
unprepared
cucamonga
0h
03
39
37
3rd
53
58
61
8a
89
94
96
agh
aide
aph
acker
ache
aquar
bil
bong
bact
bac
bids
bikes
cul
cody
coney
cakes
cope
cnn
cotta
dl
dale
dya
eiffel
fad
fain
fatt
faked
fenny
fades
faded
fisk
fancies
gould
gert
gaps
gills
gingham
hasty
hedge
ight
iram
igu
iggy
ipo
jd
jad
jank
jaws
jolt
kut
kell
kol
kang
kins
kru
komm
krie
korda
lum
lint
lakes
lars
laps
lenn
lending
lapsed
lutz
mes
mound
mord
muth
moul
mik
mung
mitz
mashed
mouthing
nou
ner
nir
nab
nlf
nath
nero
nano
naming
oat
ove
ogg
ollie
pes
pse
pum
pett
piers
rin
ritz
rugs
sra
sard
sade
sno
sne
satt
sss
tir
tant
tate
tary
tash
tamp
tilt
tainted
tumbling
uri
vr
ved
vich
viny
vcr
vidal
vested
vandal
watt
wards
wunder
witted
xero
xavier
yor
yow
yar
yore
yum
yummy
yugos
yadda
zy
zat
zere
zee
zipp
zones
zapped
zorg
zeus
zeph
##rh
##ruck
##riss
##rock
##rude
##riment
##riman
##uus
##uper
##uza
##uously
##wan
##with
##wife
##weds
##witty
##wait
##lest
##long
##liness
##lair
##lower
##lits
##laughter
##lishing
##lasses
##kk
##kie
##kick
##kok
##mn
##mill
##mand
##mie
##miss
##mph
##matic
##moral
##migod
##morda
##nc
##nant
##num
##number
##hose
##hbert
##harm
##game
##gren
##gically
##guff
##pta
##pings
##vine
##vantage
##oise
##ozo
##cans
##cett
##cape
##cats
##comb
##cano
##corp
##dam
##done
##dies
##dens
##dler
##70
##zh
##zac
##znick
##fy
##fax
##faced
##year
##bu
##bot
##bas
##bod
##bine
##bour
##bred
##bug
##beth
##bread
##bago
##build
##jorn
##jane
##jama
##58
##ón
tha
thad
thug
youll
##inet
##inch
##iners
##inci
##atum
##atile
##onin
##onov
##anide
tole
tock
toaster
##ingson
##lll
##llip
##oration
##ority
whar
whims
##enk
##enh
anto
##arz
##arcer
##areness
##isine
##eting
##otle
##itant
##itri
##rect
##repr
##regn
inmates
inigo
##vell
##veau
##uter
##utton
hectic
reop
reiss
reyn
rewards
rechar
bew
beak
wept
webs
meld
hagen
halt
dogged
doggy
dovey
doggie
##lege
##idy
##idable
##stant
##start
##strel
ongoing
isley
goon
gogh
goosed
gopher
goetz
golits
shal
shea
shuck
shamp
shrew
shiver
shreck
shaky
##alin
##aloo
forfe
##imitar
donowitz
stings
stale
staged
staked
stung
stipe
stunning
stokes
liv
libert
libel
knowed
##chal
##chment
##chio
nother
notify
notorious
##aders
##adio
myri
mydick
nod
nobel
nova
##irting
##antis
##antics
##antha
##ente
##entious
##eemed
withhold
canal
canisters
##illin
##illas
##ooly
##ooey
buts
butth
neal
neander
##ione
sopr
getcha
abby
abys
abrams
abetting
outbreak
outnumber
outdone
##inkled
##riers
##riage
##rigal
##nde
##eacher
sheer
chut
chig
chilly
chester
chigur
howling
howls
suing
sully
sult
prow
printing
pranks
prisons
##oping
##opes
##ophers
##ryption
anyroad
##icer
##icament
##ellar
##andez
##iem
vector
veidt
dex
dept
deci
deport
dehyd
frisco
fringe
frisk
herod
herring
alp
alo
alum
alignment
##ilight
everest
##usov
saver
saud
##ivey
manch
manning
manny
manually
ors
orn
orth
orte
##geese
tellers
looney
loew
loco
lollip
##arded
users
plight
##igation
##igure
ohmigod
##istible
##istrib
timothy
##ulu
##ulary
##ulative
goody
goodwill
seated
segment
##osy
##osals
gummy
exile
##olving
##olite
##olences
arty
arise
argo
comfy
fromber
##endo
##abag
wills
##ounded
backl
backdraft
##obi
##obes
##obic
##naw
spo
spree
speng
sparing
spleen
spivey
conned
conception
lettin
##ourin
##ourse
##umby
talkative
hades
bran
bret
brood
brushing
brimmer
bronson
brumby
everythin
twenny
twilight
offed
offland
cary
carpe
amos
trend
trud
trillion
agn
##otherapy
clout
clich
clipp
clerg
clicks
clavius
lem
enters
happend
##ortions
##beard
##belie
##beats
overh
overjoy
pew
pecker
pember
downs
quas
quiz
unqu
unions
uneth
unann
unru
unka
unmark
mooney
moaning
bytes
blum
blister
blush
##acell
mull
muld
muley
intake
intro
##berish
##berger
##elt
##elaces
marr
maru
mara
marches
marjor
buding
buggin
coffe
covet
##agus
sciss
scud
scoring
scimitar
##issen
##reated
undis
unders
huff
hellhole
hellfire
underhill
wright
wrath
sorcer
sorority
grues
gritty
groves
roc
roam
roster
roeder
jokers
helpin
nothingness
##ipated
imf
imitation
findley
lifeboat
##achi
muster
pleading
putty
reman
remed
##pled
##plug
embedded
leaky
thru
thrott
thresh
kinder
kinderg
elk
elroy
eligible
##udo
cret
crust
crud
croon
crotch
aden
advers
adcox
swenson
##oodles
partying
smudge
##gett
hocker
macc
maura
miners
minstrel
realtor
homey
hiv
hippy
pertain
perks
pervers
understan
##vedere
mona
monet
monuments
aces
acre
acula
acrost
missions
flake
floss
flores
flashed
flares
flirting
assert
faust
##cio
supposin
playground
playback
startle
##ogne
##ogens
##ogram
##ogues
phr
pham
phoe
runt
buses
##ondo
##ondition
disas
disast
ida
idol
idaho
##quist
##quiat
stuart
deadbeats
tract
trappers
##taine
crain
crabb
##manship
tomah
housekeeping
headmaster
headlights
morg
moran
morse
lair
launce
##shr
##sheet
strut
##anson
reson
resists
interst
interstate
schof
schooly
insure
insurre
proc
parl
parap
paratr
pretzel
pretentious
boca
boiled
##acomb
slink
slum
slang
slope
slither
slaps
slander
slices
slapping
yaw
recap
recomb
recipe
charade
charmed
charities
charnier
contents
appropri
dialed
diabet
wary
commies
commode
commute
commotion
whichever
##rovert
turnover
breck
breached
glowing
poles
polack
attire
personals
fined
finals
financed
watchit
fambly
accum
##ggle
bested
harley
harriman
triang
invinci
compact
composite
compulsion
compieg
designing
##xton
caper
capra
capability
capabilities
capulet
jacks
surreal
sitcom
farrell
schooling
barb
barman
endured
paved
seniors
cuthbert
##ultz
giang
##anco
shoved
shoelaces
jesuit
babylon
prescribe
edges
edvard
damnation
childbirth
##lings
dolly
thirties
christians
christoph
christopher
decade
decode
deciding
halford
apric
gunning
gunnel
figment
figaro
secondly
lawman
evade
##pec
relocated
skid
skag
seti
obregon
complication
complicate
bedev
bedsoe
grabbing
aww
awards
awareness
##otti
##ugnant
##azin
##azine
##azzo
jeze
confine
conform
confuses
configuration
heartbroken
passin
passages
passkey
earning
earnings
murman
shutup
colt
cologne
airk
airs
airstri
braver
bragg
brained
doorbell
lightly
lightweight
lightyear
explored
sykes
indicated
indeter
indiffer
dreamin
consort
consulate
consulting
delt
delin
delaw
madrid
madrigal
pullin
stein
steals
coral
faction
sender
sendin
speaker
blacked
blackheart
incarcer
##nebago
detest
engraved
firewood
firearms
sidekick
truthfully
discrimin
buyers
##apple
sexist
retiring
strap
snatched
forgave
collision
collabor
admits
salts
messina
papal
budge
fellah
burma
burbank
lateral
calam
calriss
defined
defender
defenses
deflector
whitey
whitefoot
jimbo
windex
artem
espar
droppings
sweets
curb
curry
singin
fallout
winnebago
concur
legion
redundant
redistrib
samantha
subter
subvers
beatnik
bobbie
uncanny
uncondition
satire
raf
raisin
musl
proportion
##umbles
belch
belvedere
grego
greased
extend
extras
extinction
classmates
studios
refined
distaste
distrust
ballgame
impolite
medall
medals
bankers
colder
##rical
kev
owning
owens
specialists
mistook
rundown
informants
psychos
psychologically
entrusted
entrepr
maryland
felton
catchin
jerky
jerking
typh
freeman
hospitable
vien
imagery
imaginary
merde
operatives
poppa
popeye
tote
condolences
wallop
beseech
lockdown
repugnant
exceptions
##ocam
##ocation
##ocrat
michel
mouthful
quickie
disapprove
puritan
costing
##ounge
posing
judicial
palate
palaces
protector
cashing
casbah
pressuring
considerably
considerations
virge
bask
basquiat
misle
misgu
misfits
investing
feur
feud
demer
cryo
sidelines
sidetrack
growed
##maids
upsets
strick
kickin
iran
irth
soldado
hopping
packet
suitor
drunks
##nese
garc
garter
garters
enjoys
enjoyable
rocking
unclear
quitter
eyebr
busts
cabot
cabana
cabbage
motions
destroyer
sherm
turley
turtles
trucker
trucking
breathin
bathed
footprint
denies
denny
governments
closure
fedex
cataton
catacomb
formica
formidable
devour
devote
devotion
arresting
ellingson
torches
cardinal
cardenas
detectors
190
19th
daitz
carlson
appreciates
violently
icey
icebox
boxers
woodwork
screwdriver
digger
jails
nina
ninja
boarded
romans
visitation
peacefully
ceased
dungeon
dunwitty
verified
vermin
veridian
stealth
camille
opposing
opponent
rollers
rolltop
germ
impressions
splits
splashing
module
moderate
accepts
##iterate
connecting
continuum
hygi
fills
macguff
requis
southgl
amaze
equity
equations
equival
particle
preparations
settin
fielding
philharm
addresses
threatens
cello
correl
electrom
appearances
colorado
heavenly
hooking
physic
gaspar
labour
antar
tracker
trackers
bowman
sensing
sensation
terrence
recognizing
holed
holier
holster
potent
potentially
potaters
extracur
rounding
##bbs
washroom
datura
clarissa
clarinet
commanding
commanded
earliest
civic
depended
raines
raincoat
admiring
admiration
pinea
sharon
##cyte
trickery
politically
##ographs
rubs
tarz
tarant
tighten
tapert
francie
auton
cupboard
dorsey
lamagra
leech
ports
portray
viewer
viewing
viewers
##laim
ideals
skinner
skinned
collectors
piled
decisive
melting
melton
yahoo
##rops
bearer
brownie
jani
janus
heavyweight
climbs
swimmer
supported
routes
embarassing
receiver
recepta
authorization
baloney
balint
balmoral
repro
duly
bellies
bellmoth
berger
matching
agreeable
committees
archives
roberto
successor
titus
speechless
puget
scarin
scarred
laurent
warmth
lindgren
martyr
softly
scrunch
crawls
precog
lucrative
rapture
treehorn
pathologist
cornered
virginal
motherfuckin
familiarity
airports
ratio
ramsey
ramón
sundown
swept
gangsters
angrier
grader
cypher
cyanide
rosy
booger
volcano
venom
venison
complained
provoking
designated
mcclus
mcconn
hamburgers
forecl
statistics
touring
tournam
wilma
wilfred
hunts
jacu
rabin
weights
snowing
snowman
muther
wisely
accordance
sneaky
fanatic
fanelli
stormy
revlon
revolt
shrunk
exec
reacting
kirby
patterson
186
corral
corrado
puny
bumper
bummer
nicola
villages
villagers
choppers
skylight
expressly
executives
unholy
telephones
##genstein
depressive
nutcase
nutshell
hilda
wetter
chapman
chapters
representatives
cubs
tipto
##boni
punchy
thyself
defenseless
targeting
fiasco
napal
persian
renoir
vulcans
mortg
peeing
peeking
##monary
shapeley
guarantees
155
faber
##mmmmm
pianist
pianos
behavioral
mathew
dumpt
spreads
improper
1200
chatting
pierced
sedation
tongues
tabs
taber
##aaaaa
nineteenth
siege
siegf
##cloth
##forward
unsp
occurrence
beauregard
lizards
antique
bangkok
gigantic
giggle
gigolo
epic
lorenson
implicate
implanted
montague
photographic
cynicism
embry
assumption
temperatures
hayse
hooper
rewarded
deceiving
bravely
negotiable
mulvan
rescind
gears
widows
##risy
astr
astute
hobbies
mattie
padding
stretching
borderline
bartending
frau
liberace
inventor
dilithium
toilets
whacko
drowns
intends
cadets
pitches
##deus
educational
osc
confessing
determination
accomplice
horrid
nationals
ribbons
affects
adjacent
purser
buns
bungh
dissatisf
lacks
candied
predicament
barrytown
deact
hesitated
lunar
vitelli
crushes
flattery
wednesdays
nathanael
##ebag
conceivable
virtues
##crack
philosophers
tubbs
clinics
individually
tasker
wormhole
marched
vessels
rotation
beefy
hackers
neatly
atlantis
exercises
cruelty
reconc
attendant
carpentry
challenger
cobra
kinship
oakwood
alteration
savvy
scanlon
occupational
215
dyed
dyson
racquet
ultra
mechanics
stiffs
intentional
grossman
flags
flagged
proceedings
salvador
adjustments
hoods
alienate
captive
hauled
structural
tribute
tribuus
establishing
lifetimes
alternatives
industries
patriots
announced
formerly
cowardice
biology
bulgar
deem
deejay
frivol
waitresses
specifications
symbolic
jenzen
tattler
tattagl
##veston
rebuild
unpack
schemes
democrat
analytical
cuisine
vintage
sprung
surroundings
harboring
trippin
columns
1960
hitching
orchard
polls
schwarz
concerto
subscribe
valentino
bogan
bogart
bogyman
omaha
##crity
##cratic
sabu
functional
landscape
technicality
frequently
frequencies
waltz
exceptionally
assembled
summon
summit
coronation
fondness
gillette
hutu
ingles
stallion
scouting
persuaded
mandatory
nomination
unacc
neuro
neurosis
intimately
intimacy
cranky
interrogated
maintained
wickedness
egos
sinclair
tolerant
anchors
israelis
stunts
restrain
explorers
exploration
kristina
writings
dictator
klingman
nitwit
revealing
measured
##eeeeee
praised
exaggerated
wrestle
wrestled
grocer
exploited
sync
observant
observatory
mongol
reinstated
outlaws
granma
granville
crusades
##whati
1972
1971
idealism
idealistic
whitew
socked
brushes
caroline
possessions
blackmailer
concluded
mushy
odette
odessa
selznick
contribute
skillful
riddled
turkle
rehearsing
ichiro
riots
sicilian
##bags
tramps
smuggle
commodore
repaired
historian
fantasize
broadcasting
sabotaged
matthews
pencils
reassigned
reassignment
capitan
translation
translated
aracht
cassandra
lamps
pods
havoc
nostal
gullible
gulliver
bronze
1984
1980
scumbags
abduction
outsider
scholars
drifted
hallucination
bunker
biocyte
inhale
inhuman
intensely
cocoon
diagnost
simplicity
indulgence
1952
disgraceful
fiends
dreary
gazelle
lysine
ponds
rooster
vagina
maneuvers
ensign
underestimated
slacking
sylvie
robberies
reformed
boosted
navigate
navigator
tango
tangiers
##ihan
manipulate
manipulated
spanking
flaunt
confronted
depths
1945
1995
sufficiently
scenarios
tibetan
3000
cinch
jasmine
spooning
brassiere
twenties
eliminated
flavors
craziest
thermal
hypothetically
dimensional
motorcycles
lanterns
manufactured
manufacturer
baines
bienstock
henderson
nudie
ratted
rattling
exorcist
uneasy
smeared
##ogenic
highlands
highlander
irresistible
irritate
feminist
immigrant
counterfeiting
ulcer
ulcers
antonio
shagging
scalped
funnier
comprehension
demolished
obscure
oriental
orientation
unlocked
fragments
vincenzo
overlooked
enthusiasm
coyote
hinkle
screens
emerge
welshman
hypocrisy
accelerate
fibers
lumps
zombies
sumpter
hoffman
intercepted
endangered
distribut
squatting
vengeful
dishonest
hollerin
flaemmchen
categories
akron
clemency
dreyer
fertile
hormone
hormones
wanders
##ranean
meyerling
stitches
##alleled
unloaded
undertaken
resurrect
metropolitan
inflation
colombo
behaved
squirrels
tormenting
botany
munchkin
nipple
oooooh
tinkering
##101
heineken
stooge
manslaughter
newcomers
flunked
discharged
deserter
incorpor
incorrect
disclose
artificially
cici
celest
keri
oyster
pimps
pansies
siberian
vanderhof
meadows
shabbas
forensic
guerr
arrakis
spicoli
oversight
blooming
newlyweds
dissection
untouchables
awwww
infiltrating
electrified
sarcastic
variations
cheerleader
prosperous
##ebrae
tranquil
dwarfs
bixler
gatling
keefe
oberfeld
pestil
stutter
trespass
trespassing
intervention
inserted
christsakes
consistent
distinguished
mediocre
mediocrity
rupture
ruptured
freighter
cremated
grieve
grieving
crocodiles
fernando
kwan
oasisburg
pioneer
rapport
voters
aristotle
aristocrat
unbear
bubbles
persecut
desecration
espion
subdued
musketeers
annihilation
erratic
ernest
mobilize
merchandise
merchandising
gelatin
hulk
rolfe
xk101
##lichman
##lavia
reeks
ligourin
sunglasses
defective
exhilar
spunky
twinkies
peerless
flintstone
proximity
sluggish
passwords
imaginative
positronic
catastrophe
alexandria
berthier
acquisition
pantyhose
aggravation
luciano
cautiously
borders
nylons
paternity
hepburn
stardust
staggering
chubby
demented
arbitr
quellek
mundt
intolerable
lifeforms
elitist
swarthout
lacerations
insolent
proceeding
metallic
filmmaker
uncontroll
impostor
norwegian
oppression
lyndon
puncture
ottos
tabloids
athlete
gynecologist
lazarus
rooftop
accompanying
raspail
schizophrenic
wannabes
bavmorda
cullum
gavin
hologram
kooky
kenneth
lsd
ogre
pestering
riker
taiwan
vultures
voila
yengeese
thalaron
gospel
prolong
frenzy
guineas
brodsky
envelopes
unparalleled
moorings
maitre
perjury
fawcett
disadvantage
diabetic
billiards
delirious
watermelon
repellent
disapproval
communicator
fatigued
prodigy
antigua
rebellion
skeletons
economics
burgundy
microchips
phenomenon
inaugural
bazaar
hothead
poultry
ruckus
tutsi
vortex
##busters
##animous
inadequate
dossier
solemn
fratern
manfredi
clerks
cloverleaf
grouchy
longshanks
impediment
imbalance
throbbing
travesty
paramedics
paralyzed
giulia
gibbons
relativity
confiscated
starbucks
detachment
submarine
proprietor
miscarriage
weddings
tapestries
urgently
coincidences
laundromat
rawlston
unacceptable
czechoslovakia
metaphasic
embezzlement
vocabulary
videotapes
clobbered
giovanni
ackerman
aquarium
cottage
fennyman
gertrude
jankis
kutusov
kruger
kommand
krieger
lennon
mutha
mitzv
sattler
vinyl
vandalism
xerox
yugoslavia
zephram
thaddeus
reynard
golitsyn
shalom
shampoo
myriad
neanderth
abyss
chigurh
saudi
ortega
fromberge
spengler
trudell
overjoyed
pemberton
unethical
unannounced
unruly
unmarked
budington
scissors
gruesome
throttle
threshold
kindergarten
phoebe
tomahawk
launcelot
schofield
schoolyard
insurrection
diabetes
invincible
compiegne
jezebel
indeterminate
delaware
incarceration
calrissian
esparza
gregoire
distasteful
entreprene
misguided
sidetracked
catacombs
hygiene
southglen
equivalent
philharmonic
gasparilla
extracurricular
mcconnell
siegfried
mulvaney
tattaglia
