[PAD]
[CLS]
[SEP]
[MASK]
[UNK]
!
"
#
$
%
&
'
)
*
+
,
-
.
/
0
1
2
3
4
5
6
7
8
9
:
;
<
=
>
?
[
]
^
_
`
a
b
c
d
e
f
g
h
i
j
k
l
m
n
o
p
q
r
s
t
u
v
w
x
y
z
{
|
}
~
£
¥
«
·
¹
à
á
â
ä
ç
è
é
ê
í
ñ
ó
õ
ù
ú
û
ü
##l
##o
##u
##t
##e
##r
##a
##b
##y
##n
##i
##z
##g
##p
##s
##d
##m
##k
##c
##w
##h
##v
##j
##x
##f
##q
##2
##0
##5
##1
##3
##û
##6
##9
##è
##4
##7
##é
##8
##ê
##í
##ù
##õ
##¹
##â
##ç
##à
##ñ
##ó
##ä
##ü
##ú
##á
th
##ou
you
##er
##in
##at
the
##on
##an
to
##ing
##ll
##or
wh
##en
##es
an
##ed
it
##ow
##ar
##is
##et
##ot
##it
##om
##as
in
##re
that
##ve
##ut
##ay
and
of
he
##ere
re
what
be
we
me
ha
do
##le
##id
##st
##gh
on
##ld
is
go
##ck
sh
##ke
##se
##al
##ght
for
##im
don
kn
st
li
this
##ver
know
your
##ch
not
##ce
was
##ad
have
my
##ight
no
##ir
##ust
##ould
##ith
##ome
##am
##ant
##ent
##ee
with
can
##ill
##oo
##ur
are
##all
but
##out
##ly
ne
they
##ion
so
get
ab
##ct
did
all
just
like
##ter
##hing
about
out
##od
there
##ink
want
##ri
as
##her
##nd
got
##ea
ll
she
ch
how
if
here
su
pr
##op
up
think
at
him
##ry
##ake
##one
any
##ic
##ell
##and
##ie
##ess
ve
##pp
##ook
##ra
who
##est
wor
one
de
##un
fr
some
##ack
her
see
why
now
al
well
##ind
##ore
##il
right
going
ever
say
##us
look
##art
would
sa
##ive
##ally
man
or
##ge
tell
##ain
lo
##ard
us
pl
##ig
##ist
oh
tim
##uck
where
##ul
good
yes
se
##alk
could
when
##os
##if
##ame
gu
ex
his
##ol
##ong
ar
##ate
com
##ven
##ast
from
som
thing
##ers
##end
were
been
##ab
will
somet
##ound
time
yea
yeah
##au
##way
come
back
##ak
mean
##ob
##ear
##na
didn
sp
con
##ine
let
##our
them
##um
talk
had
br
every
##itt
tw
##ick
off
##ation
##ice
too
##thing
##own
then
than
##lf
may
car
##ous
something
am
tr
never
take
##ap
ag
##other
cl
##ose
call
le
way
fuck
##ough
does
en
work
mr
happ
##ty
need
##ort
##ody
really
ok
##fe
make
##be
over
pe
down
should
af
##ittle
##ase
qu
##ery
dr
little
more
##em
un
##oy
mo
##ought
gon
by
bl
bet
gonna
##ace
our
sure
##ople
okay
said
guy
people
mu
##ause
has
kill
int
##ber
##el
mar
bu
co
##ide
##ag
##body
two
sc
won
only
##th
maybe
##self
##iss
very
happen
##reat
und
bec
hu
##ect
hell
##oney
much
##eel
day
under
##ree
##ff
even
##ew
god
wr
anything
year
##ther
doing
##lie
sor
##ure
##ving
##ish
ask
thought
sorry
love
give
other
##ity
hel
##ies
feel
##ite
##ble
gr
##ting
night
fir
ro
##riend
because
new
wa
##act
jo
help
try
again
thank
##eep
nothing
into
##ning
##ip
long
##fore
im
##ment
find
before
sir
##wn
##ue
life
##ather
##ach
belie
after
must
ple
gir
put
still
##ich
money
rem
##pl
told
##ang
these
em
wait
po
##der
last
first
##ady
lea
##ade
around
##ass
hey
##ire
things
##ta
##ance
thr
kind
el
friend
old
kid
##ud
believe
##per
those
##iz
cr
prob
girl
cou
ad
keep
##age
better
##ves
##ways
name
sw
big
##ood
part
##pt
sm
##ool
list
always
isn
years
##get
ho
boy
ma
##day
##ence
##atch
##oss
shit
min
real
away
great
home
please
lot
hi
per
place
##ved
underst
uh
doesn
##ile
##ft
##urn
ac
mon
cour
their
miss
bad
stop
fl
##ix
ass
##ried
fa
##ise
everything
act
##int
understand
##ci
listen
supp
hand
##ouse
remem
play
##ord
care
start
##og
stay
remember
##ild
ph
##ath
three
run
sec
##ory
##ep
##ank
bus
hear
##ond
dis
##ull
wouldn
wrong
id
happened
##qu
stu
huh
##able
might
guess
dead
##iff
talking
##een
tra
##tain
cra
minut
##atter
made
else
show
mother
##man
##red
wom
tom
leave
##ious
father
house
##ater
##ful
mind
##ia
##ny
ser
course
head
##aking
mor
la
wanted
##amn
##ey
##oth
##sh
own
##pr
str
ain
done
someone
nice
##ock
##ans
##ek
res
dad
inter
getting
through
came
enough
gotta
job
yourself
sch
ins
another
##port
mom
wasn
pro
five
par
world
pret
ton
##pect
##ict
##ions
left
bo
##ac
##mm
being
saw
##akes
fine
##are
sl
week
##orr
room
##lem
ya
##itch
fucking
rec
char
hard
knew
##ange
cont
##ign
##nt
app
##iness
##dy
##erson
war
went
di
##orm
heard
matter
meet
##ary
looking
trying
comm
##ated
same
##hn
##ub
son
fun
##ner
which
che
##ever
##ple
hur
##ro
##ctor
diff
haven
seen
coming
tonight
##ife
turn
##enty
guys
four
whole
##ph
john
bre
pretty
gl
six
##ons
bab
##pen
##osed
business
pol
person
att
seem
fo
##ars
live
fin
watch
plan
walk
read
quest
acc
fam
cle
te
word
##gg
##ince
used
##ope
many
##ian
##orrow
best
har
called
ter
##leep
pay
##ily
hour
thanks
ah
found
tri
deal
problem
##ible
inv
couldn
##ndred
hundred
morning
comp
pre
##ave
##ister
most
killed
des
##my
##xt
men
says
hello
idea
##ident
chr
##av
##wh
##ually
ten
wife
cap
##ett
use
woman
##zy
stuff
##les
next
jack
sur
##ream
sit
myself
saying
far
dri
once
school
differ
##ents
end
without
bar
sen
##orn
tomorrow
pa
##ash
##ical
##ors
while
cut
bring
wonder
##ably
##ult
gi
hold
##anc
sho
few
##gether
jes
sound
pick
##aught
##ail
today
baby
yet
pres
met
together
ed
brother
ago
##ason
##uth
child
point
drink
damn
since
open
somebody
days
##aut
sleep
##anna
took
rest
doctor
##ling
##ready
fif
doll
##ead
thir
such
ey
probably
eas
gone
already
exc
aren
christ
pri
count
case
crazy
alone
stand
eat
exact
anyone
dec
late
thous
##raid
half
hot
thousand
book
wants
jesus
die
##eak
nobody
dar
twenty
ap
gun
beaut
unt
break
fig
##sw
month
afraid
check
##ouble
thinking
friends
##eet
##son
##ng
anyway
forget
hurt
##ize
high
prom
##ition
second
minute
##air
##where
##ower
law
interest
supposed
ev
cop
hope
mrs
##ib
##pe
bill
looks
mill
rel
shot
##ost
hit
sk
##oke
##right
young
wanna
exactly
soon
family
until
cause
##ying
makes
face
spe
eight
set
knows
##amp
lost
hon
##ness
##cept
##less
##unch
gen
story
##fect
ob
compl
minutes
working
bed
gra
town
num
poss
##use
##ger
aw
fight
move
##ott
true
police
##gin
married
##ump
question
##by
##ings
##iful
answ
everybody
kids
##ual
##rew
frank
##ared
bull
##vel
asked
##ug
##ating
gave
sim
worry
je
##ither
##az
having
##ork
godd
ready
conf
different
heart
sometim
pass
beautiful
bit
ear
##ations
happy
wish
actually
##ane
##ert
luck
mur
alright
##ah
shut
##iv
air
col
inf
least
sign
##ied
anybody
times
phone
##ret
##no
beh
##ress
##llow
door
##enc
light
trust
trouble
bra
gets
hum
expl
##ont
death
sy
mil
##ier
ind
both
dream
##ial
cons
blood
del
hate
##cial
reason
##uss
hun
##ned
import
mad
shoot
each
quite
##land
pull
taking
easy
##ired
##ames
cor
ste
serious
##ins
##ates
inst
ge
##ely
star
##cc
yours
whatever
close
chance
##more
##unk
fuckin
fact
send
##vie
speak
##ne
##ird
black
inc
din
making
change
det
##reet
eng
fire
honey
##iver
##ens
expect
sort
dep
answer
##vor
##ention
telling
hours
captain
water
##io
dollars
pict
side
couple
important
##ren
truth
goes
ben
##outh
disc
news
mine
##ouch
follow
lear
body
anymore
power
lie
sometimes
buy
##ertain
##its
free
##app
##ding
##ison
alm
everyone
certain
suppose
funny
##ok
sex
sick
##uct
comes
ret
##up
against
tried
##ime
number
sn
forg
stra
coll
adm
goddamn
ele
mess
##uc
rob
sal
##ward
##olog
##ton
pap
rid
##ley
bud
dog
fell
bur
##eral
full
later
sent
hus
##ped
eyes
##sy
cal
game
pat
##ax
street
def
grand
inside
##ole
##ject
though
white
reg
##orge
##ks
##inc
party
##artment
jim
##ient
##eric
pie
ship
##led
##ipp
##als
wind
touch
##band
art
waiting
secret
country
murder
pet
##pid
almost
hands
es
its
fifty
excuse
months
shouldn
americ
husband
arr
drop
sweet
sister
means
##hin
##att
lik
terri
##aps
##ude
million
##iet
cur
stupid
sing
win
fall
pain
sus
daddy
died
women
thirty
##00
along
either
leg
##ape
tea
conc
##ush
office
dra
red
fil
##ised
finish
##so
dinner
sam
##ler
##teen
##anger
record
george
##lin
living
city
wear
sub
mag
##ms
##ator
##ters
##ital
##press
beat
##aken
maj
running
behind
drive
line
betw
sense
##side
between
##ield
bob
hang
mem
feeling
##sel
##oice
##ures
unc
##ets
nat
build
started
seems
lou
sat
##ides
alive
clean
##aughter
##ience
president
ra
chang
mus
prop
boys
lady
##med
state
scared
bel
##umb
figure
himself
##ular
##shit
rich
ann
dear
mid
##ured
seven
order
gre
##vice
able
worth
ext
class
perfect
stud
##ote
offic
clear
safe
girls
prof
hor
wer
also
##dd
children
dist
straight
ref
hair
bitch
##ike
weren
ball
test
##ract
lead
write
glad
##ows
exper
trans
##ited
med
vis
##cks
imp
buck
report
##ider
small
sounds
##ten
poor
complet
##ps
##haps
front
perhaps
bullshit
bank
lau
##any
dest
land
rad
brought
cold
ou
##ster
##ric
train
dick
somewhere
##ards
surpr
york
weeks
contr
er
happens
moment
ke
sell
outside
##arth
king
fool
##aster
ow
add
dire
less
special
mist
##erv
abs
ahead
##aw
psy
ru
##ense
##ys
los
inform
psych
daughter
##ats
goin
##ics
##osp
fel
shall
near
ent
mary
asking
##hh
##ama
lose
harry
catch
taken
movie
cool
##itting
cent
favor
bother
jer
squ
till
dark
##ony
##olut
promise
lives
human
key
prot
##ility
##ubl
##ram
##omb
fre
hosp
nick
ty
vi
fast
nine
##dle
mark
throw
possible
mer
coff
imag
explain
oper
pop
teach
accident
wal
past
##co
##ines
tot
fair
food
##vin
danger
cond
wall
##uce
resp
company
hotel
##lly
##iting
##ief
bes
ca
mart
##ically
priv
picture
fly
##ced
##ount
leaving
begin
save
lock
##ship
##ior
dress
paul
control
##gry
except
dan
tired
rep
piece
hospital
max
top
learn
thinks
##room
looked
needs
coun
mouth
##oc
##ern
##ction
super
##airs
miles
mich
rather
##ale
##ze
wonderful
lucky
offer
quick
playing
questions
laugh
dav
kiss
##gan
worked
joe
disapp
pur
known
calling
cover
words
##cent
##ency
ought
buddy
publ
dou
##oun
works
cost
pen
##ces
##erg
##ative
pleas
fix
gent
music
##und
step
personal
##vis
##fort
mister
vict
coffee
none
doin
earth
jud
mach
pos
##zz
##unt
flo
blow
general
ride
##br
##stem
sun
park
bag
pal
##uts
carry
system
rose
##ark
ray
##he
honest
jeff
protect
cas
meeting
attack
felt
##bt
drug
parents
charlie
treat
##igh
press
##ized
major
destr
##oul
##ined
##amed
##ove
stick
kidding
apartment
consider
tre
vir
meant
##ession
##ists
interested
bas
cann
marry
##ones
court
mis
##ode
honor
##idence
seeing
clock
smart
takes
spend
tele
invest
david
burn
fe
val
##fer
##ants
dem
others
strange
turned
paper
##selves
##vers
##ately
cry
eh
lord
army
##lish
##ald
conn
information
boss
date
##terday
ord
yesterday
sev
invol
giving
ran
##ific
besides
##ander
fucked
blue
sid
respect
##ael
grow
creat
##uation
##bar
##joy
ill
##die
talked
cloth
become
swear
worse
loved
enter
road
smell
##ef
##bor
##ma
cops
absolut
knock
ups
##ift
simple
lar
um
##ball
reach
##ided
stri
kick
##iam
walter
chick
fault
bor
bird
mention
##ming
##ene
##lex
worried
aff
paid
certainly
outta
terrible
ir
##iot
##go
##eth
short
##irth
sold
prog
happening
strong
changed
hop
##ney
sol
jew
pea
pack
unless
michael
bri
bast
feet
##ues
##ik
##vern
suit
pract
deep
##ls
conv
drunk
##nes
gold
prison
slow
given
lawy
cannot
gar
lunch
mama
uncle
clothes
caught
tough
enjoy
rock
plane
american
jun
##oose
assh
hist
ones
handle
middle
dam
##ged
##ities
quit
hasn
fifteen
eye
brain
nor
norm
##vious
store
##ully
##ances
private
cab
mot
##inger
chief
adv
return
public
bust
tick
##gr
boat
##ette
early
##aa
mistake
destroy
jump
##ories
forty
nothin
figured
bucks
anim
evening
foot
building
kept
sher
truck
busy
absolutely
breat
lay
lying
tur
##uff
##esh
twel
watching
comput
twelve
bath
birth
hid
##ages
cross
den
wed
neg
choice
agent
clos
trip
sand
##bers
govern
killing
peter
base
wel
moving
kinda
appre
jimmy
wit
##cri
##ism
arm
broke
careful
fut
ring
##ov
##ury
acr
##me
weird
##ently
anywhere
respons
fed
form
letter
quiet
longer
cat
cash
##bo
##ety
dev
arrest
completely
radio
imagine
upset
ell
##bed
##yn
##ives
tor
##itive
##irt
##ission
commun
##oken
involved
card
loc
situation
difference
english
liked
sil
##over
##cess
##ational
detect
bomb
19
da
low
##old
##erve
##ments
finally
alex
born
bott
fear
james
ris
tv
##oid
##oup
team
problems
third
mike
piss
##urity
club
realize
dangerous
ice
nerv
##gn
##come
##ench
##ili
space
carl
service
appreci
nervous
wood
##ume
hurry
viol
doubt
floor
history
##used
screw
afterno
box
future
main
van
##tin
##ium
island
sudd
##ilt
books
instead
esc
sudden
ble
##gar
##oud
hall
fort
bout
wake
likes
afternoon
cir
cig
##illy
calls
interesting
camp
nin
occ
sad
##oof
relax
##oint
doc
darling
obvious
proper
entire
dig
jail
glass
green
sake
##yle
fred
self
killer
security
board
officer
sitting
##ring
##uring
neigh
finished
circ
fat
##ping
discuss
message
visit
machine
dance
rom
station
##urs
##urch
peace
ce
dun
gee
ver
wow
##ray
church
##orth
stopped
johnny
hmm
lad
ted
##uke
##ulous
possib
steal
table
allow
cla
natur
belong
jake
##ots
needed
roll
post
eddie
across
cam
lim
opp
##idge
prod
account
ger
tem
##iter
impress
staying
pictures
age
dude
##te
##ina
##stairs
##lfriend
wrote
decided
bought
bunch
fish
##rey
##ounds
spl
girlfriend
missed
window
totally
mod
west
accept
picked
colle
horse
owe
direct
welcome
emp
disappear
connect
cook
hy
contin
fol
hom
tape
##ugg
##imin
goodby
somethin
evil
asshole
san
##lo
##cut
shop
college
fill
##fully
##ened
join
lots
forgive
lawyer
tast
heal
mac
goodbye
cast
##mit
##atic
requ
gotten
bastard
witness
##aven
weap
missing
present
hungry
investig
cigar
cow
cong
eve
est
south
##mas
suck
##ogra
contact
apolog
appreciate
##nie
##ino
##ills
amaz
hardly
##avy
fur
##etch
sugg
##onel
equ
sett
soul
wild
##etic
##ices
william
partic
prep
##view
computer
av
hide
russ
voice
lived
enem
holy
deliver
dumb
field
gard
##night
##key
##pped
french
phil
address
master
named
##oon
threat
##ann
force
calm
cell
##uel
##bi
usually
prove
christmas
corre
wearing
kar
pard
##how
moved
##form
ange
##une
saved
price
forgot
elect
louis
program
government
dying
##to
quar
awful
color
department
papers
suspect
##pin
##ky
##iment
hero
##cially
appear
driving
billy
suggest
##ru
heaven
fail
##king
##ana
##eng
putting
charge
single
surprise
hook
roy
nose
princ
##aine
hadn
marri
standing
gas
##ules
ground
smoke
phot
phys
mas
mir
##ination
##ica
sail
crime
imposs
lab
ant
##arch
track
defin
##ipped
bow
##ham
##ester
whose
##vision
##ai
##gu
##ether
suff
load
listening
idiot
diffic
sens
##uthor
cre
song
##friend
##uten
const
##mmer
appro
farm
colonel
draw
impossible
band
yell
##ians
##work
##ature
mov
attention
terr
lieuten
##bit
neck
##ico
loves
##ogn
gives
movies
pot
push
percent
##aces
reading
relation
obs
surprised
joke
boyfriend
##cious
recogn
surv
extra
correct
cust
fit
hol
sea
##ruct
share
using
spir
bro
dollar
##attle
birthday
pardon
lieutenant
round
##bb
##ute
beer
##iday
stuck
wash
neither
ways
starting
divor
dreams
pleasure
detective
dat
rick
pray
level
walking
walked
promised
spec
film
type
drugs
normal
wedding
folks
clar
blame
paris
command
experience
judge
aud
hen
mc
whether
beach
guest
comfort
block
earl
records
beginning
sheriff
neighbor
tal
fright
##ify
##ified
twice
brothers
ridic
america
jul
names
rain
vac
##gue
##owers
notice
##ille
fired
charles
admit
civ
##vy
asleep
##icide
closed
writing
partner
##lemen
depend
jerry
code
during
gh
mitch
pin
##bur
##hood
thom
##ering
##aged
##ished
group
mission
trick
wondering
admir
shar
tells
seemed
difficult
relationship
##uit
##cy
##uty
##ston
talkin
broken
cred
smok
memory
orders
gift
nuts
tar
##boy
plenty
guard
exam
crash
polit
guns
seconds
evidence
fighting
fellow
##ograph
rub
tight
##ted
exp
##aked
moon
crap
planet
tech
##pecially
especially
martin
marriage
ridiculous
mmm
tap
##por
washing
spent
bye
##ager
cute
holding
amazing
silly
wheel
franc
exce
##pens
position
camer
aut
cup
dor
dump
rent
river
##zen
##fuck
##otion
inno
beg
##iew
##place
lam
sle
##bs
##ius
##iced
exist
##astic
jean
feed
particular
lee
loose
port
tow
##aud
betty
intr
acting
ide
bat
fbi
view
##la
##ron
##nal
##den
intell
travel
skin
collect
definite
pan
pil
tear
##par
mel
forever
scream
decis
file
ju
north
##ners
##ka
##ese
##itor
##ries
plans
buzz
host
faith
yah
sleeping
mal
pig
tax
##rop
ther
bear
within
butt
##esty
arri
##ended
keeps
weekend
pulled
patient
gentlemen
victim
egg
##lor
##fast
mex
##oop
lovely
hole
detail
double
finger
gri
ori
sar
##que
##enny
stories
note
proud
search
brown
grant
remind
##ploy
crimin
contract
breakfast
nature
condition
animal
fant
nur
often
worst
meaning
bridge
##els
crack
sixty
sym
jan
jam
##iny
heavy
organ
clim
swim
support
grace
seriously
rules
queen
played
bobby
odd
rout
##men
angry
##ung
feels
desert
bathroom
danc
##ez
ital
andy
rece
##iforn
univer
feelings
embar
tommy
##while
##ancy
##ology
californ
health
lang
opin
area
champ
cock
scene
attract
##row
##here
iss
shock
##ires
gettin
succ
spot
ourselves
##bert
##ips
advice
##ption
harm
object
terrif
seventy
civil
nurse
000
author
bal
crew
games
##min
##cer
##read
repr
summer
##icated
##ender
agree
##ints
washington
california
ef
page
##eg
##pap
##ishing
stole
##ada
chea
places
built
perform
event
learned
##heart
henry
bod
cree
dir
mass
##ges
##kes
##eech
plus
blind
insane
murdered
concer
profession
complete
television
##ength
effect
du
ly
##light
##of
##rass
##iant
##ford
##isf
bell
agre
medical
gentle
split
innocent
dirty
ber
match
##ises
##ution
onto
leon
immed
keeping
assist
committ
jeffrey
techn
embarrass
coo
gim
rand
yo
##wood
##itude
arch
bruce
charact
gener
profess
hiding
immedi
##rick
herself
##itten
showed
project
pretend
##ences
majesty
keys
risk
apologize
jour
mix
nig
rough
tit
##ye
##gas
lic
knowing
willing
convers
##ument
robert
favorite
empty
enemy
custom
definitely
success
##line
cha
speech
##oyd
teeth
senator
lately
simp
study
ghost
credit
pu
##eed
##ral
##ging
##ero
##enn
weather
##urance
upstairs
##olf
scar
laur
##acy
warm
speed
following
las
lind
rome
tree
##let
##ss
##ena
stock
##enth
necess
amb
marsh
holly
flight
interview
trial
drinking
apart
shooting
incred
subject
marty
danie
settle
dave
luc
##za
##ki
##field
##amin
soft
brad
scr
craw
paying
prec
copy
horri
losing
##ountain
due
rap
##yond
##wise
##ano
beyond
##ste
stan
states
##elly
somehow
pock
crow
##ettes
shoes
curious
richard
training
ticket
devil
obviously
pool
ug
vide
weak
waste
client
emerg
smith
greatest
ident
harold
eating
newspap
dropped
sweetheart
magic
hanging
taste
spirit
introd
origin
path
sant
wine
##aff
letters
brand
action
decide
grab
fella
satisf
victor
chicken
responsible
suddenly
admiral
##rat
##iat
whoa
cars
heads
corner
legs
locked
##iliar
claim
opinion
concerned
professor
taught
ur
##ration
thou
##itz
##omm
stone
##icle
motherfuck
##otten
virgin
possibly
excell
cous
fle
hat
tie
switch
common
famous
familiar
prefer
airport
incl
purp
##stein
ban
bond
ol
rat
ram
##ker
sund
##oph
themselves
##ortun
scott
swe
numbers
opportun
data
thomas
cheap
gang
gord
size
##town
##cus
##val
##oned
ang
##arm
##alous
lied
lloyd
chair
seat
##achel
turns
raise
german
intellig
30
cy
ign
##iest
ash
sugar
proof
##ulations
comin
grad
##ization
monster
runs
mommy
##wards
magaz
satur
gimme
simply
dry
lone
ros
sight
##lu
##aur
##eter
##ased
forward
dont
##ula
comb
bright
tru
scare
helped
career
commander
desk
susp
boo
gal
vol
##ening
held
lift
##antic
suicide
deg
spoke
science
bigger
##othy
sooner
##velop
natural
further
saturday
dom
rum
sour
ven
wound
##head
noticed
##usion
arms
insurance
personally
mostly
checked
complain
jealous
request
character
duty
fem
oil
pants
##da
##ville
##ered
haw
fore
prov
##iction
design
excited
##ibility
large
afford
junior
breath
repres
horrible
borrow
jason
kay
mick
mcc
nail
##mission
ham
stat
vegas
lookin
bug
scient
nightm
employ
adam
attorn
drag
director
freak
decision
bon
ry
heat
##icious
fresh
##ils
claud
otherwise
laid
appar
descri
passed
annie
ideas
conversation
ugly
sunday
attorney
cit
hors
hired
mountain
rab
rip
tour
wil
##ts
##imate
stars
sever
sport
starts
shows
lights
eleven
regular
quickly
norman
dunno
vacation
dorothy
emergency
lonely
10
eur
jac
kitch
rele
expens
arg
sword
doctors
snow
sales
distur
escape
property
ladies
recognize
broad
kitchen
eth
gall
row
##oming
##asons
weight
##istic
access
speaking
discover
perfectly
leads
busted
bottle
langu
immediately
aust
aunt
mut
pounds
wise
##mer
whoever
develop
helping
accord
milit
madame
england
sneak
dogs
arrange
concern
talent
bodies
cousin
fan
gam
jos
lake
lond
lines
mood
sin
til
##house
##eds
##ites
storm
upon
friday
plant
brit
everywhere
##ago
johnson
deserve
driver
beauty
goddam
rule
mentioned
##ground
weapons
congrat
quarter
francis
mexico
license
gordon
bay
ken
mm
##well
##inary
##orter
rev
repe
shr
liar
soci
##ication
##ilty
sees
guilty
trade
energ
scri
joey
remain
mail
matters
planning
hunt
##uction
crying
blew
comfortable
london
nar
nah
ye
##time
##ya
##ored
whis
stom
##lyn
justice
##rage
scot
commission
watched
answers
expected
total
hoping
criminal
corn
kr
luke
national
##ued
##gest
##inct
##ores
##sey
##using
exe
##earch
strength
eighteen
market
local
bottom
pissed
terrific
purpose
citiz
11
bite
dise
ms
non
pun
patter
##af
##ien
itself
react
##ality
##ches
nope
##elle
nowhere
usual
cares
became
pregn
damned
eighty
practice
garden
truly
east
faster
gay
kir
##ga
threw
##ato
##asy
##ades
##icate
drove
nights
imm
poison
assign
stayed
hearing
secretary
extre
ruin
disappoint
positive
carrying
pressure
cele
approach
gentleman
pocket
europe
18
awhile
corr
cream
cards
##nin
##nel
theory
social
##akin
buff
believed
##gging
bringing
milk
engine
loud
opportunity
celebr
bum
mat
mob
nic
vill
##bly
tooth
whom
##ids
stew
chop
manager
spare
brill
written
pair
sky
grave
expecting
square
teacher
##board
camera
ears
mall
wire
witch
##bing
##iers
##ived
##ising
##asc
##tern
sue
##uses
plain
separ
express
##oles
united
writer
leaves
elaine
research
surr
sometime
benj
followed
susan
balls
center
danny
naturally
energy
script
execut
net
tall
zero
##ita
##asing
##asion
##ida
##essed
whenever
unh
thro
opened
bedroom
indian
sexual
pete
magn
dressed
teleph
allowed
smoking
cooper
daniel
battle
fund
tun
##ees
##gen
reasons
meat
above
chic
depress
emotion
older
assume
serge
jacket
aware
bloody
files
larry
birds
damage
animals
closer
federal
russian
frightened
sna
##ients
##iner
##cha
ate
##icy
spock
enc
quot
surely
##ache
##anged
shower
serve
appoint
tex
easier
operation
continue
incredible
20
ment
map
nut
##tor
##tle
heh
reck
log
spring
cole
biggest
hild
inspect
bullet
brains
indeed
burned
sidney
destroyed
fortune
weapon
physical
necessary
pattern
sergeant
aye
ba
bare
cart
cos
cub
jon
jose
jane
tip
wet
##back
##kins
shame
chap
flat
serv
##roll
##gged
pieces
refer
flying
county
neighborhood
includ
represent
apparently
according
benjamin
##bon
##con
##case
thy
##erm
shirt
butter
however
##itty
carp
blank
thoughts
tryin
player
restaur
powerful
jerk
silver
princess
terror
divorce
mitchell
video
mickey
pure
punch
##iod
##gy
##sie
##cle
thurs
chem
##osition
##ending
ours
disg
funeral
awake
legal
turning
target
ryan
language
stomach
bern
kane
naw
ot
oce
pills
vall
##ev
##pir
##father
anal
##itions
##unce
among
##ement
period
activ
plays
trap
sonny
picking
defense
psychiat
century
responsibility
issue
hollywood
excellent
magazine
congratulations
thursday
hill
jab
junk
lap
rod
ta
##rant
##gers
##imp
knife
staff
chain
alb
goodnight
blond
flowers
recall
babe
behav
streets
##ipper
freed
##fortun
boring
arrested
investigation
cigarettes
mirac
linda
crowd
disease
throat
bones
fi
jury
led
pump
dozen
##cker
stink
cancer
##ural
print
saving
letting
leo
unfortun
breaking
falling
professional
british
hildy
dish
jap
lis
nap
pow
tay
##uz
##uh
##iation
alan
manage
loy
##empt
unus
buying
##izing
strang
final
desper
simone
signal
forgotten
buried
##under
enterpr
strike
prepared
earlier
tapes
eggs
chicago
hm
hated
mater
pers
##ha
youre
##itation
##stand
shift
##ilities
##aker
unl
waited
understood
flor
accom
baron
nearly
laughing
virus
italian
pink
pear
ren
vul
vamp
yep
##oci
##ture
##bage
##yl
##nn
##eding
shield
chest
someplace
tellin
guar
lemm
margo
##ffic
joint
maid
process
tony
##aced
##etti
surf
laws
signed
changes
illeg
practically
negot
baseball
woods
disappeared
connection
society
taylor
unusual
fab
mort
naked
pee
rh
##ex
##zo
##mon
inj
shape
choose
saf
##ateful
trad
unf
beth
coat
huge
kidna
swell
associ
recomm
charming
brings
confir
steve
##ipping
selling
cowboy
mask
brilliant
loyal
guarant
15
jess
var
##gie
##ket
theo
doors
shark
knight
lies
spell
moves
finds
disp
clever
ended
sending
riding
concent
##olution
typ
cabin
williams
depends
slept
pilot
dancing
pregnant
joseph
lemme
cath
dust
fal
pill
rate
roof
rachel
sally
wade
##oil
##rate
##ona
toward
whore
anna
stab
lif
noise
prim
##ications
##ulation
seal
talks
trunk
downstairs
unif
emper
##mmmm
opening
instruct
elev
robin
sisters
ordered
##inese
sevent
garage
hyp
royal
sailor
motherfucker
military
cult
nerve
pian
rush
##uv
##ule
##ror
whad
##reen
stol
loan
##ipe
parts
smile
holl
headed
attitude
dealing
invite
##ledge
transfer
fixed
brief
negative
ellie
clarence
assistant
several
behavior
enterprise
uniform
emperor
fing
lat
math
ox
rare
##res
##ym
##ining
rever
##lect
##pping
lect
grown
firm
trail
sched
pulling
clearly
##rica
steph
equip
angel
yellow
committee
ocean
japan
dent
dum
dign
fake
sed
##off
##oved
##eal
##ders
##down
thor
thief
##ini
##ators
chinese
spread
impr
reality
monday
rooms
relig
complicated
artist
opera
soldier
hmmm
survive
details
newspaper
telephone
restaurant
freedom
12
nons
tail
tues
yard
theater
##ceed
cho
chat
rights
##ulate
##asty
##umst
amy
downtown
carefully
heading
commit
ends
##ashed
decent
thousands
confused
corpor
##ension
touched
member
expert
covered
screaming
arrived
horses
tuesday
gain
hates
kelly
pier
ron
tong
tab
tank
wend
wolf
##lt
##ox
##bling
##iber
##otic
##rel
cance
thinkin
deb
france
clay
partners
fac
##athan
showing
result
jobs
sixteen
planned
terry
jackie
##ashion
burning
midnight
creature
progress
cigarette
avoid
audience
fantastic
journal
jacqu
repeat
seventeen
equipment
nonsense
cents
fried
vice
##ux
##ele
##ses
##esar
style
liqu
wasting
likely
##ila
sayin
amount
coast
##agne
grade
actor
slight
diam
invited
compet
wondered
millions
##ological
created
entertain
##aaaa
ninet
romantic
princip
sarah
agreed
original
material
dare
fasc
mile
naz
rail
sie
##cl
##for
whatta
shhh
##vert
##cher
##eez
##urt
##itted
clark
uns
##eline
score
finding
acqu
understanding
insist
terms
desire
drinks
##swald
incident
defend
regret
banks
lesson
occur
karl
santa
extrem
jabez
diamond
dirt
fashion
gate
les
oswald
pir
wes
##vent
reed
beau
liz
lips
spoken
##bel
monsie
##iac
fourteen
##phy
passing
##ucle
##ologist
falls
official
experiment
ruined
caesar
kicked
solid
occasion
circumst
product
anti
divorced
therap
scratch
female
kenned
stolen
monsieur
bang
fancy
gig
guts
hire
lous
por
##oll
##agh
##anz
##ential
chances
armed
grateful
roger
impl
poet
friendly
permission
intern
##gger
meth
priest
bills
frankly
##uced
curr
growing
smells
affair
hidden
electric
create
univers
title
intelligence
nightmare
kennedy
dim
ep
jones
lor
pant
range
woke
##lies
##nis
##ige
##can
##ware
##eday
##oms
##reau
web
deck
alarm
sean
someday
##abitch
##ouses
betray
##eless
##ague
underw
realized
mont
insult
policy
famil
passion
influ
humor
squad
offered
oughta
pleased
garbage
belongs
castle
photograph
route
foreign
expensive
texas
bound
bax
cher
cyn
fer
fought
mack
puss
##mont
##fle
##erves
##asure
##rie
prince
fro
##iles
mayor
carter
agency
bureau
emb
assum
barn
edge
younger
confidence
learning
central
##ocol
honestly
attacked
value
knocked
temper
model
universe
champagne
mixed
safety
fingers
lousy
baxter
25
hay
hoo
joy
nun
opt
wy
##ij
##gl
##reck
##utation
reward
##stone
gosh
dece
##iling
##olic
coke
##agon
male
flesh
attempt
term
prior
##nold
brave
hung
steven
staring
patrick
loser
psycho
counsel
demand
tickets
glasses
congress
avail
##rupt
victims
performance
romeo
introduce
francisco
citizen
valley
negoti
piano
extremely
families
100
dies
mul
nasty
nucle
porn
##oe
##oot
##mond
##wich
theat
##itution
sha
##verage
soph
chall
china
twist
fucker
eliz
resc
##road
jesse
frankie
##ival
facts
secrets
wallet
ninety
impressed
guests
chaunce
pupp
appointment
reckon
illegal
chauncey
gab
gear
miam
rack
rig
wid
##eer
##ris
##ault
##ially
##ios
##sa
##kin
reven
doyle
shad
forced
knowledge
##antage
##oooo
aband
##rap
##ushing
wherever
##osc
kills
hud
badly
stretch
reserv
sonof
cheese
exciting
hunting
singing
winter
statement
distance
nicky
trees
bored
claire
gardiner
tower
sweat
emotional
disgust
miracle
tongue
available
miami
50
ast
duck
fishing
grew
hob
matt
nurs
pad
peel
piz
##bles
##cil
##ara
hal
##seum
stood
stamp
##rib
cloud
unit
trace
resist
desp
cutting
shoe
checking
genius
steady
benef
grandfather
regard
murderer
reputation
counter
casino
miser
border
motel
breathe
##ovich
screwed
panic
attractive
authority
unhapp
including
bart
bible
boun
fra
fag
kath
na
pour
powers
##lig
##iving
##ca
toby
toss
##enna
stage
liber
libr
##che
##aint
section
spoil
moz
##agn
##thy
gray
flash
phill
craig
series
appl
commer
invent
metal
signs
explan
paint
painting
medic
destiny
demon
breathing
escap
##load
example
odds
satisfied
discovered
bail
cake
dil
dip
liter
mum
race
tied
ward
wander
##oard
##mother
##cul
##vard
thee
toil
whack
##esa
##rees
dope
##ado
novel
##enture
aboard
wanting
##ril
##rict
shel
cham
chew
chann
veh
lob
goodness
season
comr
##abeth
spook
shoulda
drown
intend
scary
##atherine
crit
fourth
confer
confident
##ivid
explos
windows
student
popular
penny
motor
deny
community
##ropri
climb
nineteen
circumstances
nuclear
elizabeth
cad
eff
kim
mere
pitch
tits
vinc
vada
##de
##atory
anx
anne
##arily
##oted
repl
##sters
##ante
shelly
anyhow
fruit
##ability
##uman
museum
kidd
swing
parties
fav
boom
recently
recover
babies
preach
educ
edward
##ception
engaged
##ensive
bothering
reporter
bags
cases
spending
jews
lawyers
possibility
filled
russia
loaded
construct
holiday
ricky
political
autom
nigger
source
inspector
batter
cert
fate
ii
nation
os
patch
vers
viet
##dom
##dia
##isc
beam
meal
##ador
##oops
##allow
neil
aside
sheld
chasing
howard
alth
agnes
minister
monkey
##ansas
boston
apple
finan
walks
termin
capable
easily
standard
miller
bullets
confess
reasonable
determ
register
terribly
louise
cleaning
studio
throwing
considered
ranch
soldiers
convinc
sandwich
impression
empire
karen
jeanne
routine
creep
lydia
barely
blonde
lisa
desperate
accompl
recommend
guarantee
jessica
sonofabitch
mozart
cure
horr
nix
rib
tag
ves
##bery
##zing
thin
##erved
##sty
##imony
lip
##illed
##rian
chin
##ican
alice
albert
##ucker
##ols
##uments
affect
qual
mole
helen
thrown
adj
traffic
cheer
tricks
chriss
diego
hurts
murders
admire
members
changing
conduct
walls
respond
purs
football
enemies
pathetic
ashamed
rabbit
release
psychiatr
unhappy
medicine
60
aven
bun
bert
cav
cats
diss
diz
et
kat
link
lack
lomb
lenny
mic
pist
vo
wing
##rog
##iar
##ique
##kee
##ales
cand
pred
pros
dew
brook
offense
coinc
mustn
kinds
cru
courage
serial
launch
harder
##ggy
capital
barry
points
hits
starfle
bury
memories
misery
advantage
stealing
appears
failure
sensitive
particularly
eventually
separate
pearl
although
starfleet
der
dea
gale
hes
ku
kent
lun
punk
tiny
vit
wide
zoo
##lus
##oh
##ties
##gun
thel
##edy
relie
knees
##rier
##istry
exch
contain
trou
workin
union
unbe
blast
puts
##ples
crush
flatter
##quir
owns
strugg
##icted
warning
bread
trusted
madam
##apped
susie
experi
dickie
foolish
direction
caused
superman
based
convince
##nesday
wednesday
ellen
constant
swimming
false
jacqueline
pussy
explanation
##ropriate
lombard
14
catherine
drew
hanna
jeez
nathan
teen
umm
wreck
##uate
##eb
##bl
##mp
##erc
##anie
##ares
##uther
review
shake
##imes
candy
outf
suits
##iece
frances
sale
orange
conce
lets
shoulder
blah
screen
becoming
smo
assass
remembered
morph
proced
focus
thirteen
prick
interests
setting
##azz
dreaming
starling
americans
winning
below
greg
officers
vision
machines
systems
virt
jewel
brian
assholes
basement
alexander
veron
produc
sharp
janet
ghosts
laura
claudia
disturb
josh
shrink
narc
kirk
revenge
miserable
bone
ped
pic
rag
vote
wick
##gain
##cra
##vable
init
infect
##reg
reh
beast
habit
stake
myst
chocol
##ittin
warn
shots
grandma
handsome
curse
tests
loss
valu
jewish
philos
angeles
##burg
politics
jamie
successful
argument
ethan
village
florida
robinson
wendy
frozen
effort
ach
ded
dud
duke
gather
lit
lower
lester
pound
pac
rif
tent
tub
##oom
##nam
##pher
##caine
##we
##ww
##hip
thumb
##eration
##atives
##itute
##ases
rex
whats
bein
began
doe
button
##anda
##uls
coulda
##icks
clin
clown
wayne
cocaine
image
badge
minds
served
hurting
ahh
bargain
fifth
skip
passport
humili
individ
robbed
budd
fully
arranged
cleaned
refuse
transport
pleasant
iron
stronger
dawn
tempor
directly
mirror
##bbie
instructions
schedule
university
toilet
conference
veronica
cage
dime
fart
gut
houses
ira
jet
kurt
rope
soup
tu
tas
tend
##rated
##aid
##book
##ygen
##kn
##ktor
##omes
inch
andrew
hack
myster
##ella
wore
worm
debbie
##ilar
sacri
lois
lover
plate
##ulse
march
marvel
trave
stroke
charley
warri
surge
holds
##anced
possession
movement
instinct
snake
sweetie
viktor
counting
doug
parking
considering
trem
basic
burns
dunbar
shopping
prepare
labor
##estern
tears
juice
healthy
embarrassing
ambass
ignor
describe
otis
unfortunately
oxygen
fascin
financial
vessel
smooth
cere
eric
ned
navy
rot
ut
##bows
##path
##fred
thick
whist
##oma
replace
beef
golf
##ader
##illa
neat
sheila
##ops
atl
fran
loving
exerc
blown
marcus
##pert
cruel
minor
lotta
faces
##cient
struck
stranger
paran
recon
senior
graham
policeman
##enced
engage
trained
ordinary
jumped
violence
delivery
bowling
suffering
objection
customers
degrees
chocolate
bree
cable
cia
horn
ni
oak
pity
##isher
beck
##lder
ford
stones
##chan
##iring
chase
chip
##pper
sav
##ifer
guards
conven
bride
underground
league
slip
charges
div
attend
fox
stands
higher
ships
parker
basically
misunder
reached
package
slowly
bleeding
witnesses
journey
suspicious
tunnel
services
carpent
elevator
influence
theatre
challen
psychiatrist
thelma
sacrif
ambassador
13
bour
cob
jill
kin
kil
kansas
mant
pit
roth
rac
sore
wig
zone
##rake
##bled
##iable
##mber
##worth
##inting
##onse
toy
##aring
##ota
##omp
##vey
heck
heather
forest
steak
stairs
notes
noble
##odes
alter
sac
plastic
carried
cliff
worker
scan
scen
cris
flag
assure
##plex
##onscious
chris
barbar
senate
giant
promotion
compliment
depos
sexy
goddamnit
patients
grandmother
article
leader
leading
kevin
bothered
personality
basket
closing
elliot
location
occup
neighb
failed
committed
snap
method
wyatt
unbelie
mystery
valuable
21
cott
dy
dall
dough
fuel
gitt
han
hills
lyn
mck
ult
wat
##li
##rance
##rison
##mo
##reak
mechan
stiff
##aming
##illing
##outs
alco
##ulf
##osing
truman
agents
clue
africa
drum
intent
intention
marks
##agger
gods
gross
##play
crook
supper
##epend
##quis
proceed
johnnie
surg
darlin
highly
lawson
events
shotgun
salv
distract
palm
treated
entirely
freddie
collection
virginia
provide
claude
revolution
assignment
tradition
japanese
rescue
escaped
convinced
adjust
exchange
jewelry
individual
gittes
aim
average
bars
bump
cave
dating
fee
gary
hust
hood
hitting
mig
mason
makin
tan
##rit
ancient
##etta
thats
shore
shakes
forces
ability
suz
##esth
dean
device
deeds
herr
alien
manner
sem
sew
exit
agg
clo
env
##bley
wave
jokes
helps
stops
actress
headache
##prints
warrant
diane
capt
decl
##ugs
independ
instance
deputy
goddamned
satan
testify
begins
palace
treating
##ification
estate
lampert
sympath
newspapers
degree
network
chemical
railroad
therapy
horror
avenue
hannah
outfit
dallas
alcoh
17
24
40
45
core
ease
gest
nest
nik
ruth
sink
wings
##gle
##moon
##wray
##xx
##erick
##esis
##rell
##ays
haul
shown
##verly
shell
sheets
chart
chuck
woulda
spin
happiness
bless
asks
poem
supply
supplies
mighty
trapped
struct
boots
planes
pays
trib
dealer
hundreds
prevent
useful
barnes
skull
confession
honeymoon
films
laund
psychic
marylin
teaching
maxine
costs
protection
turkey
sandy
fortun
teddy
homicide
coward
estab
delivered
colored
holes
julie
taxi
intelligent
austin
surrender
lifet
dignan
sieu
webster
mulwray
hudson
pizza
library
commercial
iraq
marvelous
paranoid
22
cant
duff
jenny
jenn
mate
nort
oz
puff
rank
sire
tig
western
yards
##ois
##ua
##bid
##gs
##otch
stor
lick
##adem
##eeze
soap
##ician
##essa
seek
altern
didnt
##umn
mars
becomes
joking
believes
musta
remark
swallow
flies
interf
glenn
prize
checks
indust
patri
subst
announ
testimony
reports
radiation
jersey
darkness
privile
protecting
strict
golden
enjoyed
negro
governor
former
silence
mikey
geez
impressive
bowl
received
champion
lucy
precise
designed
reaction
mental
surface
shadow
chamber
coincidence
rifle
unbelievable
cotton
jennifer
aid
bi
bul
bol
bald
cri
dee
fri
lung
mam
rud
tam
wad
##uary
##rand
##bits
##mar
##hib
##van
##oura
##erk
##org
##aries
inn
beverly
##idate
##ckey
steel
alvy
##osa
exists
##ears
spect
everyday
trash
##eman
marge
rocks
##ached
waitress
adult
homework
academ
monitor
flow
fletch
actual
moral
mornin
owner
parad
warned
##ggin
harvard
prem
sounded
billion
oblig
worrying
answered
robbery
sentence
uncom
belt
profit
tyler
strip
bastards
computers
torture
discussion
cells
suffer
washed
specific
juliet
symb
cockta
crawford
angle
salesman
remains
loyalty
channel
pistol
neighbors
200
dull
fever
gus
il
jen
lula
ooo
pent
poo
pages
tatt
##yard
##gent
##dra
##walk
##hold
##vest
anth
##itory
##itlin
reb
dod
forth
outa
wanta
chee
sucks
##opard
##race
debt
plat
##igan
##osen
##osite
argue
compr
complex
spy
span
lex
##bels
pean
unp
scra
grass
flower
asses
##ordin
internal
schem
boot
boats
glor
trigger
compan
precious
##anca
presence
editor
breaks
figures
signature
delight
instant
admin
salt
burgl
satell
beside
caitlin
dana
treatment
investment
democ
crossed
document
freddy
limit
homer
threatened
appearance
photo
species
dumped
italy
berlin
embarrassed
volunt
wounded
scotch
analy
strangers
##force
occurred
underwear
disgusting
vehicle
confidential
vincent
construction
aug
cu
dw
hou
hank
kit
lu
malk
pony
rise
rude
rape
tone
vin
von
vick
##uits
##ec
##nat
##pa
item
##itar
##omic
weal
dool
##sem
##ura
chosen
##icing
frame
hers
managed
sector
background
spr
cared
tran
##thia
askin
grady
firing
bush
##quar
moron
slaughter
tries
eaten
##otted
hearts
delay
retire
salad
touching
raised
students
dickson
mistakes
response
locker
##unders
casual
treasure
solution
suitcase
federation
properly
connected
sucker
existence
effects
fleet
statue
mountains
ripley
surround
executive
vulcan
##uva
religious
cancel
beaumont
cynthia
brooklyn
philosoph
carpenter
malkovich
bid
hatch
kate
lt
rings
raz
tut
takin
yess
yup
##egr
##jack
anger
##ashing
height
##str
##sequ
##uries
##hern
atm
##ryn
##icles
saint
gum
spar
concept
##ously
enorm
##ortion
blade
##aging
helluva
feelin
flu
##cience
resign
slave
appropriate
wars
warren
diet
##roit
breast
harbor
tripp
pale
edie
related
grail
column
detroit
fellas
patience
singer
##lines
district
media
steps
creatures
packed
june
dammit
196
modern
settled
threatening
prayer
granted
stanley
germans
disappointed
reverend
pirate
counselor
abandoned
lunatic
buddies
##known
establish
lifetime
fry
fence
hitch
hump
ian
luther
nam
pas
rang
tact
wis
##low
##oes
##oves
##ked
##cing
##col
##cast
##xual
##onn
##esp
beating
##iments
therefore
chill
prints
alph
alfred
manh
orch
##oses
##osal
arth
##abl
willie
##augh
spit
unknown
killers
cocks
poll
elvis
phony
schw
appeal
glory
invis
highway
evan
conscience
deliber
incre
collar
messed
concert
subs
lessons
mercy
offering
kissing
##fortable
teleg
valent
cryst
ordell
affairs
hoped
advance
adventure
returned
closet
campa
##guard
pushed
julia
hawk
bugs
scientists
nightmares
sports
depressed
unlike
vampire
fabulous
loretta
widow
reservation
benefit
comrade
preacher
uncomfortable
16
35
500
bog
cuz
dut
dill
gorge
ja
jus
nan
nerves
om
oct
sack
site
tune
vig
vince
##eus
##rase
##away
##zer
##gment
##pson
##cr
##cile
bee
shaw
##imum
nell
sov
chim
sup
ath
##rael
sab
saunders
timing
##osph
arnold
clients
units
bluff
coordin
scale
joined
belief
remove
assault
stress
parole
function
polite
foley
sits
givin
april
skipper
fighter
brace
dreamed
freeze
freezing
straw
patr
ess
filthy
buildings
raw
grey
lands
ouch
##hhh
laughs
kissed
victory
casabl
meantime
convent
prisoner
continued
quarters
farmer
extraord
thompson
lamb
fantasy
technical
technology
scientist
expenses
punish
##standing
shields
concentrate
culture
stephen
choices
liquor
principal
current
critic
anxious
molec
warrior
barbara
cripp
doolittle
campaign
casablanca
bachel
dna
dyn
furn
greet
kram
moss
mult
nu
ny
oath
rust
ripped
##uated
##vo
##era
##ingo
##ora
##enger
inse
inject
weir
##leans
shaking
knee
stream
##irs
alley
prose
orleans
##ucky
##ables
##apt
mud
##action
imper
coupl
swore
stopping
listened
handed
dism
tracks
charged
christian
grav
earn
synd
factory
deton
retired
##attan
fallen
legit
legend
unconscious
offices
profile
entit
frequ
walt
exception
council
solve
practical
trucks
communist
violent
opposite
##uggie
tastes
creasy
potential
organization
agreement
pretending
identify
introduced
ignore
whisper
whiskey
bernstein
powder
vampires
corporate
poetry
gabri
racket
education
dewey
task
mysterious
exercise
crisis
storage
invisible
gorgeous
kramer
00
ace
auggie
cem
fog
gill
hint
jur
jazz
mau
mosc
pip
ross
sides
tin
wra
wip
yu
yuh
##lock
##uine
##ras
##mur
##win
##wright
##onment
tod
wha
##arn
##ari
##otes
##itors
hallow
isol
shout
##ading
##adel
##irm
neut
assem
summ
pride
veget
##ookie
plug
consequ
troops
quote
coach
scam
##ishop
afterwards
friendship
##izes
perman
acted
disaster
headquar
owned
moments
recru
##ggie
useless
genuine
awfully
wishes
coron
institution
discip
##iety
paine
memor
worthless
##aws
squeeze
imagination
operations
conditions
superior
marrying
entering
chicks
convention
enjoying
advise
jumping
communications
selfish
roman
limits
produce
homes
mcmur
blocks
leonard
generous
laurie
raped
weakness
venice
arrangements
confirmed
latest
merely
kiddin
version
vietnam
nixon
##lusive
temporary
fascinating
envir
comprom
august
arthur
extraordinary
entitled
headquarters
mcmurphy
23
bend
fond
gree
ginger
hut
kh
nancy
pige
pushing
rotten
sinc
tat
##ront
##bie
##bird
##po
##car
##ja
##llo
##isy
##otions
ing
reception
belly
wears
hah
shu
##aled
stall
lily
##urd
chose
##ello
##ppy
##ilton
manners
##uled
##osis
werew
spark
##beat
quality
unre
blows
intended
scout
gram
role
waitin
poker
adop
permit
runnin
secure
tons
booth
##acity
contest
controll
teresa
preys
jackson
driven
decor
##ibly
genesis
similar
shuttle
conscious
conspir
pulls
##ivers
snoop
salary
classes
studying
transmission
erin
mistaken
pops
fairy
paulie
irish
packing
dennis
accounts
drawing
yelling
reminds
receip
attracted
civilization
random
disturbed
gallagh
rowan
developed
josie
scotty
celebrate
persu
kidnapped
photographs
cherry
lobby
favour
sheldrake
procedure
##craft
achie
challenge
sacred
structure
academy
anthony
bachelor
dynam
moscow
gallagher
ay
aids
batt
ditch
dug
lon
mand
nom
nav
option
pud
pup
ske
tips
una
vic
##lon
##oan
##uous
##ba
##zel
##kind
##com
##wr
anesth
##itect
##omy
##oman
##asant
##aya
hem
reject
whatcha
##leone
goose
shy
##alie
forbid
##aded
myth
##oos
butch
neur
socks
anytime
##essler
defe
saav
plot
seattle
exha
##olved
comment
##enda
spider
lebows
peggy
shoulders
intim
bund
grun
joan
crank
crane
sweep
faced
handling
handled
morgue
interrupt
interrog
schm
slipped
apply
cheat
businessman
finest
restra
forgetting
hitler
simon
earned
colon
corleone
instr
budget
reported
##artha
owes
ruiz
##ysis
dressing
laughed
sticks
jungle
laying
maintain
vanessa
escort
tempt
##ographer
suggestion
spirits
martini
mmmm
architect
victoria
urgent
complaining
citizens
terrorists
catholic
sealed
diamonds
epis
twisted
nurses
liberty
dipl
shelter
determined
chrissake
wicked
kurtz
spanish
enormous
prosecut
environment
preysing
saavik
exhaust
lebowski
cind
eg
gag
hose
nas
op
pimp
rug
si
viv
wives
##born
##gues
##do
##don
##mate
##ko
youth
##aton
tore
toler
##esy
anch
##arter
##othing
##ombley
inner
weed
havin
##idal
israel
fork
stalk
stunt
##urice
##rix
##eau
sum
debor
##unction
alt
alert
plates
##oln
spray
sphere
twombley
lew
fucks
dram
unique
integr
##berg
marquis
writ
##acht
removed
emotions
pole
thrust
smarter
stays
traged
charm
cheated
deals
invitation
ending
counts
explor
election
sammy
worthy
impulse
republ
judy
basis
##cription
feds
daily
digging
accepted
territory
potato
audition
decisions
grip
criminals
sympt
balt
ambul
incredibly
crawling
suspic
krist
expression
cooperate
activity
unfortunate
pierce
friedman
nazis
international
options
clinic
surgery
aggress
cocktail
manhattan
telegram
cemet
halloween
deborah
git
ko
kring
linc
length
pals
pike
rans
wally
ware
##lane
##aves
##ias
##iven
##iator
##gic
##pear
##sion
##ds
##ken
##hi
##anch
toast
whales
reve
begging
hammer
goof
shith
sting
##ament
##hers
suc
suite
sulu
manif
maniac
uses
##ifying
##endid
brut
##itts
clerk
lean
envel
drank
helm
##aches
emily
##assy
couch
swed
##pton
hiya
uhh
active
hears
boone
slut
slim
##dya
meetings
cheating
##phia
personnel
reads
opens
halfway
relative
obst
fights
##aze
murray
burke
dropping
curios
beats
annivers
horiz
radar
catching
bothers
merry
merrick
purple
judgment
parked
connell
hopeless
normally
motive
closest
locate
silent
clubs
evelyn
philadel
hooker
songs
custody
clarice
##burger
ruby
cameras
hostile
malcol
pigs
taxes
customer
##leton
brandon
combination
rumor
status
narrow
assigned
blanket
dishes
unfair
results
nazi
fashioned
phillip
literally
bunny
voices
troubles
surgeon
shakespear
tiger
##otchka
strictly
precisely
peanut
deliberately
soviet
##osphere
coupla
lincoln
envelope
anniversary
philadelphia
malcolm
shakespeare
bent
dal
dame
dict
fuss
fits
gor
kend
kling
kings
mi
mun
nit
pose
pipe
sig
ts
tis
uta
wiz
yan
yacht
##lict
##rup
##bal
##zed
##zlo
##put
##pers
##power
##mail
##inity
##iture
ink
inher
meas
goal
sheep
shitty
lion
livin
##iro
##eeee
soda
abuse
pra
prime
upper
##ested
frida
##iled
##artz
##ained
sequ
seats
select
guin
guide
exped
exagger
##ums
##aph
clothing
engin
##berry
scully
wrest
groc
waves
joanna
waiter
adele
##shot
resent
worlds
recent
warp
diary
division
sons
##pense
cleared
shove
presume
edgar
highest
relatives
questioning
bits
bitter
explo
syn
corp
sorta
messages
drawn
draft
##lina
propose
beloved
##umbo
studied
tested
visiting
landing
absurd
entrance
vienna
suns
seventh
brick
garrison
norma
motion
torn
violin
ninotchka
romance
sucked
threaten
bandit
observ
##burgh
sharks
skinny
hostage
hostages
arrive
issues
harmless
daniels
flew
combat
booze
borrowed
mccoy
dragon
concerns
magnific
chapter
confirm
religion
##elein
##belik
betrayed
assuming
invented
wandering
certific
kubelik
traveling
cobb
waters
suzie
interfere
symbol
crystal
tragedy
cemetery
kringelein
curiosity
utah
engines
bishop
cattle
dway
econ
egy
fisher
hunch
jed
jay
jere
jelly
kong
kenny
lame
mol
mong
martha
pile
rico
tale
voy
wyn
##rad
##rome
##rating
##ridge
##wire
##foot
towards
##esc
##aron
##ete
##itate
##itable
##itated
##rels
heav
rey
rein
weigh
haunt
shine
##alf
liver
yourselves
canada
sof
outl
outer
##rial
##ryl
##eller
##pps
deer
lovers
plague
##istration
##ulated
guid
guilt
exhib
backs
##ummy
maya
fuckers
workers
needn
mock
margar
maranz
grat
gran
crus
crimes
swamp
##daya
playin
phones
traum
##shire
prost
paras
glob
accused
payment
##what
eats
skirt
franklin
passage
airline
steam
incon
eleph
papa
grandpa
winner
samuel
proposition
distress
fools
##onym
merc
explained
operate
superst
purse
pengu
##visor
roseb
raymond
severe
creative
kicking
busting
crossing
197
doubts
bleed
frederick
discussed
peaceful
requires
suspected
sailing
surviv
rubber
wheels
ideal
intellect
receive
balance
creek
generally
nigga
laser
santos
graduate
scientific
goddammit
mallory
logical
patterns
cuba
carpet
bernie
stinks
lecter
trailer
slightly
naive
prospect
morpheus
pacific
tremend
laundry
scheme
yessir
atmosphere
furniture
dwayne
egypt
biz
cried
dates
eag
epps
fid
ferg
faint
gy
nich
nuth
rop
ripper
vom
wins
##lan
##now
##pes
##dale
##hand
##vant
##fl
toe
tox
tool
whit
##arian
##otta
##aser
rear
##leaf
##store
##imore
##imeter
donald
knox
stir
neph
sock
##inky
ohio
ohhh
seb
arc
comic
##aste
meanwhile
spill
brush
carol
lev
enforce
mulder
greater
##ogs
morgan
lawn
string
strate
interfer
insp
charity
walker
ahhh
tennis
meters
thirsty
sketch
possess
##encer
madman
blackmail
retard
sentiment
##ieth
concl
raising
bela
hairy
smaller
fooled
merle
operator
##cover
costume
penn
floating
protected
treves
entered
jewels
juno
publicity
torped
violet
violation
limo
splendid
cooking
folk
physically
obsessed
gifts
feeding
mexican
creeps
effective
randy
scares
laszlo
necessarily
##anoff
rumors
wilson
lecture
liquid
temperature
barton
spoiled
explosion
deaf
struggle
assassin
producer
engagement
independent
alcohol
paradise
satellite
schwartz
valentine
patrol
gabriel
werewolf
conspiracy
baltimore
ambulance
maranzano
bam
cord
cunt
dub
dyle
fiction
ganz
kyle
lance
lane
lugg
luthor
mim
mush
od
ooh
puke
rm
rode
rita
vaugh
wagon
##tw
##eu
##rus
##bow
##bag
##gage
##pting
##diction
##mouth
##va
##order
##orters
whoo
whip
##enstein
##aroo
reggie
bears
dock
dolor
##stick
##kel
stacy
##cho
##chester
wasted
noon
butcher
neo
sheet
chan
howdy
##rack
worries
orph
locks
plumb
sel
exter
##astian
backwards
conqu
bren
brady
mayo
tram
##osexual
callin
leland
lemon
enquir
que
queer
unex
molly
bub
##ueger
puttin
leak
thrill
##izer
ador
perp
monsters
missiles
flip
flood
disks
##attered
##ansky
parr
##acon
beings
contrib
dial
polish
compound
previous
capacity
surve
drives
highness
skill
questioned
colors
##ials
consum
starving
sorts
bodyguard
retrie
forgiven
collea
ridd
##oleon
samples
maggie
muscle
annoy
officially
impact
landl
covers
destruction
demons
prisoners
damaged
##grim
turk
##oids
boxes
##rington
circus
circuit
production
cookie
require
sucking
apology
electron
photos
##guing
recognized
survived
##ography
searching
shocked
chaos
include
bonds
magazines
jacob
broadcast
gamble
commissioner
krueger
engineering
matth
matrix
stewart
bait
napoleon
transferred
dentist
ronnie
porters
montana
##nolds
negotiate
puppet
rehears
basketball
intentions
captured
announce
privilege
houston
##natural
surrounded
juris
diplom
wizard
magnificent
reynolds
sebastian
dolores
80
ari
bike
cly
cities
dyl
fats
hans
ich
jeep
mouse
mookie
nag
pitts
rage
rats
riot
ss
sic
sittin
tack
vent
wrap
##lot
##lers
##uard
##aire
##yon
##iance
##gate
##mony
##wy
##hill
##ffe
thread
thea
##anor
tops
tools
inna
##keys
##aly
##aline
##imm
donnie
lila
##char
##ira
##illance
chess
safer
orbit
plants
##ulting
seym
coma
compens
comedy
##umber
carr
carbon
amber
tramp
envy
##agers
##the
writes
##angle
crown
smack
smugg
smiling
boyd
acid
actors
##cia
handy
phrase
##anks
display
guessed
mothers
laz
inspir
momma
##pected
slam
sloan
apples
commod
##rove
gloves
sixth
walkin
aha
compared
deserved
drivin
##aughters
eduard
excit
exclusive
ape
award
passes
behalf
humans
milo
madison
##cca
speaks
answering
strain
drops
filed
refused
reflect
fooling
fairly
wallace
causing
repair
reporters
##zech
davis
##zzle
sunny
treaty
involve
knocking
deeply
histor
##box
silk
risks
carlos
screwing
possibilities
westley
homosexual
wilder
williamson
angels
hooked
physics
suffered
auto
autograph
pilgrim
melanie
fantas
matches
customs
marshal
claims
excellency
lifted
hawai
nailed
extreme
corru
engineer
steward
alban
injured
associate
typical
primitive
reverse
entertainment
insulted
embassy
assumed
accomplish
##keeper
tube
ceremony
convenient
sacrifice
deposit
mckenna
gesture
democr
philosophy
wisdom
sabot
pudding
symptoms
succeed
jedi
wynant
fergus
nephew
unexpected
matthew
jurisdiction
dylan
seymour
75
99
ax
czech
ding
dur
daughters
fu
fame
foul
gin
hip
ivy
jody
kl
kip
len
lime
pope
penc
ral
rio
sust
sins
vod
wounds
##lante
##uing
##uum
##rors
##bes
##yer
##nic
##got
##kman
##cott
##hole
##xim
whale
anonym
##armed
ingen
inquir
reass
measure
##cktor
shed
shap
##anta
withdra
asian
worship
alike
##usions
##arte
expense
spagh
##umes
brun
leather
lecktor
happily
muff
marie
daylight
undercover
helpful
probation
adrian
maf
acce
monica
flame
##ogue
serving
parent
content
brew
compass
chron
capit
sleepy
resting
christine
relations
frankenstein
murphy
##ivity
colony
infant
##encing
##encies
india
delicious
bene
defensive
arrog
curs
painted
##lined
subway
natalie
raoul
musical
proposed
transl
kingdom
owen
entry
centuries
coffin
operating
penis
attacks
honored
##ificant
illusion
smelled
strikes
kicks
borg
practicing
deeper
formal
tort
communication
detectives
islands
documents
hyster
investigating
investigator
russians
heroin
suggested
praying
wheeler
francs
batman
fingerprints
contracts
climbing
stanwy
chairman
venkman
arrangement
yeh
cosm
analysis
laplante
cowboys
knights
holland
electrical
registered
flattered
disturbance
narciss
dudley
##ulsive
whistle
mantan
##osaurs
cocksucker
coordinates
multip
gravity
sincere
vivian
lewis
dramatic
ransom
horizon
expedition
rosebud
tremendous
eagle
enforcement
perpet
surveillance
clyde
vodka
spaghetti
ack
ara
cass
dow
dive
daw
erica
fulf
gym
jord
kal
kra
lest
lamp
maker
pod
posed
porter
rit
ranger
sut
sout
sank
tire
vouch
woo
wipe
##list
##lah
##uf
##elf
##rd
##rett
##aver
##bell
##bac
##bler
##iere
##zil
##pot
##pol
##point
##mark
##coming
##wald
##far
##ít
##ís
##äng
##erie
##anes
##oting
hav
hald
shh
shack
shave
##see
forms
##chair
nost
##amus
canyon
soil
##tery
##tering
chet
##opath
##icip
##icans
vel
worn
frust
seein
##ainted
placed
selina
gull
##ola
##abelle
backup
spencer
bron
mayfield
pecul
quad
unst
bloom
blaming
scent
scumb
scoop
undress
underne
joel
waits
##udge
##izz
swan
sworn
hockey
##atched
minnes
perm
##iley
acts
actions
understands
players
stayin
##mann
##eyer
nicely
##ocks
parlor
bold
slice
slap
hardware
##nerable
breed
glen
desmond
schools
gib
presents
promises
##ibilities
ski
stepped
institute
sends
region
artagn
bobo
annette
classic
straighten
bitches
error
addison
psychotic
psychological
nickel
marked
merch
published
penet
tread
feather
creator
illness
absolute
returns
bombs
198
girlfriends
furtw
souls
heavens
tracking
obsession
specim
frightening
taransky
expand
july
jammed
immediate
crawl
pockets
sources
employee
description
mutual
gambling
toothp
chopped
mortal
josephine
cathy
choir
ronald
tables
debate
slightest
stevens
sophie
batteries
ribbon
constantly
ignorant
atlantic
altered
razor
orchest
bracelet
syndrome
consequences
##birds
episode
aggressive
warehouse
nuthin
vomit
excitement
stanwyk
##ängler
peculiar
scumbag
underneath
minnesota
artagnan
furtwängler
400
bapt
cater
caut
codes
dix
dante
fans
fettes
hind
hence
ike
jaw
kor
mast
pg
rational
sis
tenth
vib
vern
wack
wired
wires
yon
ze
##oons
##uu
##rust
##not
##pack
##cles
##fly
thie
##inal
##llie
whores
##eness
inh
##uted
heel
reun
bean
beans
shred
stations
lilly
##ighty
##aman
##antine
##urb
abd
outs
sull
uptown
##icop
##icient
##rah
##estic
alas
alab
sax
sauce
##ulty
guild
##olve
willow
spons
spying
spotted
carn
amate
leopard
needle
oklah
quaid
mug
marvin
hull
helicop
gru
poly
pointing
oldest
swana
mah
maurice
mini
ministry
fax
phoned
stubb
tomb
schol
attached
harris
tribe
drift
##ancing
childhood
eastern
countries
eatin
sets
genetic
differently
airpl
hunter
##negan
dinosaurs
fireman
freeway
almighty
snakes
snuff
burst
burger
##ippi
winds
arrow
dragged
raid
greedy
safely
straightened
haircut
leaders
medication
addition
informed
squid
humanity
imagined
flynn
maxie
purch
fixing
blowing
trevor
bosses
larger
chickens
iris
rocky
quietly
193
carla
halluc
discussing
rolling
temple
directions
contacted
programmed
heroes
approve
drawer
broom
levels
examined
exposed
slee
melt
berke
niggers
grabbed
satisfaction
scottie
punished
immort
poisoned
buffy
nicer
nicole
separated
depressing
psychiatric
powell
types
latin
stephanie
dignity
seduce
thorwald
improve
corporation
tanks
resistance
kathryn
demonst
drowned
battery
patchett
sheldon
terminal
sandwiches
chrissakes
candidate
utter
industry
pentagon
tattoo
chimera
supre
wiped
neutral
dynamite
exhausted
anchor
kristen
shithead
kendall
sunset
voyage
survivors
pittsburgh
ralph
jordan
ritual
vernon
oklahoma
bian
bunk
bio
bai
bingo
cough
dre
dread
etern
gau
gino
hart
hong
kel
lin
lid
linger
mount
niece
ole
rounds
sang
sane
vicious
vault
wich
waking
zack
##oir
##uk
##uctor
##uana
##bone
##gir
##meyer
##corn
##ji
##face
##function
##eries
##atics
##atically
theories
##onia
##aney
todd
tobac
##orse
ank
##etically
##otics
##ito
##omet
##reh
##vember
hector
weep
habits
##idor
##stock
stair
##ched
november
##illac
##urate
##urning
aspir
##icates
##elli
##andal
##unning
##gel
##istics
seed
##olves
ark
letty
##umph
branch
twins
offended
clues
happier
overr
overnight
drill
unable
intense
coin
coco
##agen
scram
##thin
grounds
fires
wax
remote
##uded
coup
swann
smash
smashed
minimum
##onda
##quet
craft
minded
owners
##pret
strand
resour
schul
insight
proves
proved
prett
boil
slide
charl
diagn
meets
chef
##phis
watches
harass
triumph
dealers
compare
prey
deserves
tense
capture
picks
metaph
darryl
breakdown
evolution
reliable
gene
possessed
##ugos
simpl
conflict
brazil
indul
indians
corps
starship
closely
deposition
sniff
collins
messy
fellows
hush
calvin
##ippers
peters
curtain
submit
memphis
cleaner
proposal
medal
bucket
buckaroo
contrary
keaton
psychology
catches
popcorn
teachers
toto
causes
covering
connie
convict
rocket
advanced
##cript
ringing
##ova
195
pissing
visitors
cecile
opposed
##teenth
cooked
cookies
equal
fields
suspects
suggesting
mirrors
label
judgement
tricked
shares
smoked
crashed
expose
begun
portra
##aude
dancer
civilian
authorities
assistance
spiritual
##itzer
sweater
requested
released
austrian
kirsty
disappointment
encoun
referring
chemistry
disgrace
album
fiend
fiance
printed
savings
lawsuit
various
primary
whadda
whaddya
briefcase
thorough
competition
##ijuana
priority
stamps
regarding
whacked
cadillac
relieved
crushed
experienced
morphine
initi
infected
rothstein
ultimate
remarkable
lungs
rudy
spectac
dodge
cheek
wealth
breasts
rangers
dismiss
compromise
achieve
cindy
koessler
inconven
penguin
channing
adorable
hawaii
withdraw
mafia
beneath
reunion
alabama
tobacco
28
31
aaa
bass
bisc
cows
dart
ein
ere
eld
eug
ego
foss
gaz
hilly
lys
lama
lined
pend
pond
roo
rice
session
tide
tib
vag
##life
##oly
##eous
##burn
##nick
##zona
##grove
##mith
##kward
##cie
##har
##fish
thus
##ourage
##erous
##atown
##onna
##onies
##ington
##orate
##oty
inches
reilly
meals
haf
##iding
goat
goss
shuff
myers
##uster
##amas
##eem
sod
allen
allerg
##ria
chairs
chased
##opp
##icorn
##icidal
manual
maneu
goods
##abet
amusing
click
clip
ens
needing
quant
quitting
killin
intact
##elope
cocon
scum
hugh
huey
underest
##ewell
grows
root
remar
kindly
kindness
crop
cramp
crunch
hollow
flirt
remembers
remembering
disgu
tracy
##shine
strings
slack
slick
contra
##iana
harsh
harrington
cape
farewell
shovel
mete
decides
copies
copper
skills
eighth
beds
awkward
##aza
bites
columb
bravo
syl
geor
income
diner
bench
follows
returning
element
robber
calcul
touches
artie
curt
beaten
memo
annabelle
distinct
reform
balloon
visual
imply
surprises
ernie
keith
sells
owl
absence
##hhhh
operational
hotels
privacy
float
sticking
treas
birdie
irre
denied
woody
cigars
circle
fatal
romul
limited
connections
investigate
contacts
programs
##ruder
constitution
specif
wheelchair
autop
rented
lamar
malfunction
bearing
grief
organic
danced
cockro
massive
interviews
banana
graduated
boost
domin
hamburger
argon
austral
sneaking
talented
corresp
buffal
encoura
reckless
cubans
servant
activities
chains
accomp
rhy
hollis
dummy
facing
facility
porch
passionate
hoover
nuns
abandon
faggot
comrades
anxiety
favors
automatic
lipstick
kentucky
andrews
instincts
breeze
beckett
divine
fortunate
volunte
##onnect
molecular
cripple
insect
receipt
navig
interrogation
integrity
manifest
brutal
margaret
bizar
conclusion
luggage
arizona
anonymous
southern
thieves
berkeley
wichita
schulz
hillyer
gossip
correspond
aa
bou
bin
dork
eager
gast
gek
gates
iren
keen
lux
mour
nash
naught
pension
sway
ties
tang
tina
tender
vague
venture
vader
yer
##tight
##ns
##ih
##iency
##dan
##ded
##mates
##cour
##wall
##via
##inations
toes
##inging
##esome
anarch
##aration
##iser
##oto
##asis
indy
##utt
heels
becker
meek
##cken
##aling
##immer
donna
stare
stens
stores
streak
lill
##verted
outrage
##riger
gotham
chips
prote
##iel
##essions
##rav
alib
welles
manip
manchester
loom
##ulars
##osaur
##ifies
guitar
##olas
##akers
##ober
spank
bru
offers
ambr
overl
overwh
overhe
##employ
unemploy
blake
##elm
cozy
##thorn
##issions
heller
godfather
gren
roast
helpless
##nings
putter
emil
thrilled
elena
cruc
probe
advert
swine
perf
theirs
fla
travis
tragic
household
mora
lazy
parade
appet
johns
finance
readings
accent
accurate
triple
trips
dealt
drif
cuts
pointed
easter
excuses
standards
booked
darn
breaker
gracious
towns
confusing
confront
passenger
behave
lightning
consult
shootin
blacks
dining
depart
depth
benny
##apping
##okes
retreat
ridge
riddle
feller
define
regan
##ippin
petty
cured
winston
legally
drapes
filth
classified
horny
distant
refriger
ballet
transmit
medium
visa
reporting
landed
merger
explains
superher
penit
cannon
feature
paperwork
respectable
##balls
affirm
hopes
solar
brig
##ikes
##nesia
responsibilities
##boat
199
194
vanished
fortress
ninth
visitor
belonged
modest
sanct
filling
##etched
equipped
photographer
anticip
sufficient
sensors
creed
farmers
terrance
prayers
audrey
blocked
frighten
vacuum
smokes
examine
mmmmmmm
towler
buzzing
faithful
queens
performed
technically
titan
scaring
identity
identified
motherfuckers
switched
oliver
represents
hamp
freaks
planted
celebration
depression
bailey
cosgrove
##backs
##ylum
dispatch
concentration
cabinet
##aaaaaaaa
therapist
panties
puppy
hobby
certified
qualified
bertrand
caviar
efforts
dedicated
thumbs
travell
wigand
scenar
methods
alternative
vinci
legitimate
wrapped
isolated
coroner
##rupting
corpse
certificate
sentimental
vaughan
orphan
acknow
haldeman
helicopter
gruber
tibet
meteor
buffalo
gekko
affirmative
300
70
ais
cin
ced
cod
dess
dap
dated
ec
effic
echo
fink
fare
hound
hats
jas
jag
kob
kitty
lant
lod
lud
mace
mature
maude
nay
null
nuke
oth
peep
pms
penth
ras
rend
soo
satch
tuck
tum
vow
##roth
##bra
##zak
##dog
##mart
##mund
##west
##hard
##fight
##fol
##fire
##erate
##eria
##inite
toys
##oran
whew
##edge
##etor
anderson
rebe
rebels
hamm
dol
##lection
##step
shang
##alt
liable
lions
##cel
canad
##illes
##urre
##ctions
justin
##rich
asylum
chump
atomic
##icating
somewhat
##ilated
manuf
orson
logan
sept
##osh
arguing
##obot
spite
spoon
brass
twent
amend
ambit
amnesia
trous
ages
claws
lech
enlight
enzo
afric
##ember
unw
unple
unicorn
blessed
scoo
helms
roach
wald
leavin
throws
elimin
listed
realistic
monkeys
flav
suppl
disag
disres
deadly
craz
fathers
housew
resume
interrupting
parano
##mmm
slob
slapped
##hne
##phin
attic
fold
harvey
##avis
barrel
presum
eddy
drinkin
excess
promoted
eval
evac
setup
grain
awesome
confusion
##rete
lighter
lighten
explore
explode
steering
##enses
admitted
elements
patron
murderers
painful
dragging
subpo
##umbled
transm
imperson
oui
errand
losers
psychologist
freaked
images
condem
cafe
micheal
gently
palmer
jefferson
pressing
courtroom
peach
conviction
destroying
footage
torch
communicate
verd
rolls
rolled
hyd
continent
continues
##ugged
castor
castro
philip
cellar
electro
smokey
masters
massey
survival
julian
depending
relationships
cameron
pilots
therm
fingerna
sara
cracked
symph
civilized
lauren
ambition
precaut
originally
satisfy
sweating
graduation
roses
suspended
galvin
domino
complaints
horsesh
rabbits
discovery
militia
scotland
reactor
european
purely
management
mortgage
kidnapping
spells
pillow
hypoth
mathem
dumper
commitment
journalist
acquaint
lesb
internet
electricity
dimension
barnett
december
porno
gabe
despite
fraud
motorcy
chinatown
dizzy
predict
struggling
procedures
virtue
picnic
dudes
laboratory
kilos
traditional
hustle
declare
chemicals
shells
iraqis
patriot
negroes
pooch
glorious
companies
administration
burglary
slaughtered
retirement
alpha
punishment
greetings
controlled
forbidden
instrument
writers
klingon
yankee
arcade
strategy
enquirer
stewardess
sabotage
pencil
unstable
orchestra
sponsor
airplane
supreme
bianca
portrait
eugene
autopsy
bizarre
ambrose
perfume
moraes
penitent
hampshire
dessert
daphne
lantern
rebecca
manufact
unpleasant
disrespect
26
42
90
aaron
bore
bain
bien
cum
cort
cork
dot
dary
fade
fug
fract
hend
jig
jade
kry
nud
py
pulse
ratt
rene
tel
tiss
veter
yak
yield
##lene
##oen
##och
##uest
##uations
##rin
##rent
##rest
##rise
##yy
##nia
##iary
##gal
##piece
##sky
##mes
##mers
##mine
##kers
##fus
##fman
##oups
##inter
##atures
##anity
toky
##llor
##orc
whe
##arine
##eton
##omed
##utes
webb
haz
##state
shan
shared
donut
knives
stim
stable
##child
##ads
nooo
noises
##anted
butler
allison
allows
##rik
asia
shep
chum
chek
##icians
veins
##rain
herbert
seeking
ali
alto
saints
mankind
telly
loaf
user
##ulpt
##osure
##ifton
exorc
conk
amen
amour
##aparte
clifton
overd
##emann
une
intri
marion
maria
maroon
marla
scrap
sculpt
hug
wrist
lovey
rogers
##active
joker
jockey
believing
emma
poster
##udy
crummy
adren
partial
smear
maze
homeless
hipp
pervert
perimeter
##ogen
phant
traps
tomato
##shop
residence
insom
slay
hardest
breach
##onsider
watchin
payroll
chrom
barren
decency
highland
obl
graves
jeopard
heartbeat
##erton
##ivan
signor
importance
install
factor
expectations
watergate
benn
disconnect
buys
retain
messing
burt
burg
millionaire
pains
recording
subtle
natives
extension
studies
profits
refuses
hairs
testing
dicks
owed
merlin
conductor
martins
penelope
sunlight
sunshine
carryin
destruct
consideration
burnt
valiant
irres
irrit
bribe
buster
sherman
acres
devoted
upsetting
daisy
lowell
rising
ladder
disappearance
macfar
elected
hookers
crashes
towel
travels
tearing
buttons
weekends
january
pageant
characters
speeches
weathers
magician
volume
domestic
femin
kaye
nails
employees
bonus
bonaparte
mutant
pregnancy
immig
ruining
approaching
corridor
funds
tuna
logic
junkie
crowded
perspect
fabric
association
rarely
pierre
avoiding
entertaining
defendant
leslie
lizard
deceased
counterfe
kathy
katharine
tossed
##check
spooky
replaced
swinging
creepy
accomplished
micr
experiences
gregory
picard
infection
rehab
##weight
atlanta
bourne
occupied
lynette
friggin
obliged
debts
delighted
wealthy
tuttle
toddy
pigeons
adopted
snoopy
persuade
anesthes
defeat
grunemann
schmuck
suspicion
goofy
guinea
guidance
gratitude
global
elephant
brenner
sicily
fantasies
dawson
lestat
eternity
hafta
curtis
naughty
penthouse
shangri
trousers
african
subpoena
tokyo
chekov
macfarlane
34
38
800
bate
baked
cuff
dere
dell
dash
era
erik
fest
fist
fian
fuse
fries
gt
gw
gulf
hick
hiring
ive
jar
kast
kau
lust
lend
lones
loos
lugos
mild
maps
oo
pam
pus
pul
pub
pork
rash
tah
tapped
ul
vital
wag
##like
##eger
##rod
##rence
##ait
##zes
##dor
##master
##card
##hy
##vet
##jah
##fall
thigh
thunder
##erd
##atra
theft
##oning
anton
##isco
whatso
begged
beavis
wee
doo
##stood
goeb
shag
shining
##sex
donny
knots
sty
stoned
##adays
noir
##ooke
##urer
neural
sox
sober
abort
abortion
##ctic
##inks
pritch
anyways
anythin
##icit
##elled
##raph
wholes
deed
nowadays
loans
##igo
##isticated
ohh
semin
##olo
##olet
##abouts
##obe
##obile
conway
bras
brody
brok
brenda
twelf
carri
careless
trim
leia
enth
quince
##emm
movin
mollie
mueller
hass
killaine
##elway
marx
marine
margie
scal
scored
scandal
grid
grub
groups
longest
mustang
kidney
##uding
keepin
swiss
mines
understudy
missile
flush
##intend
handles
##ques
guessing
headaches
laval
interior
proven
roommate
hardy
funn
sixties
persons
finn
finch
compar
compos
compreh
tension
edmund
damnit
sleeps
counted
wished
##erts
##retion
delicate
incomp
discreet
discretion
sickness
saloon
arts
curve
concrete
redi
annual
refr
radiator
jerome
freaking
population
controls
maxwell
supernatural
michigan
quicker
costello
demol
creating
roads
reaches
shortly
convicted
damone
norville
motiv
chiefs
advised
denver
neglig
armor
##ovan
devices
wooden
digest
digital
limb
horseman
directed
tracked
loading
idiots
obsc
politician
innoc
traveled
panick
orient
sarge
opinions
terrified
lyin
settlement
scrub
identification
claimed
flea
germany
cycle
cycl
employed
directors
described
wilh
cornwall
celebrity
mobile
graveyard
executed
mentally
reference
shirts
terrorist
desperately
unlock
vulnerable
maiden
associates
stabil
stabbed
scheduled
jacques
insisted
incidentally
occasionally
underwater
mackelway
##ooter
shaft
bounty
frag
channels
vehicles
vincen
determine
pursue
caval
cruise
containment
lombardo
narcotics
gathering
transportation
farther
misunderstanding
misunderstood
dyin
cloak
alcoholic
charts
northern
adults
dwight
vicki
heights
increase
nanobot
october
vigo
permanently
##borne
jeremy
haunted
levi
torpedo
retrieval
landlord
rehearsal
compassion
arrogant
cursed
hysterical
treadstone
scholar
lingerie
encounter
einstein
allergic
alibi
loomis
overlook
appetite
aisle
##hardt
september
fingernails
tissue
wheat
conklin
perspective
bateman
kastle
lugosi
whatsoever
goebbels
pritchett
twelfth
enthus
cornwallis
32
41
48
auth
aster
barth
banged
baker
bryn
bacon
cate
coy
dmit
eject
fier
fountain
hink
lle
mt
miz
ost
pine
pne
pens
sessions
tee
vood
wo
wakes
zomb
zuz
##lar
##ae
##bro
##zon
##giving
##post
##mia
##cet
##cake
##cony
##woman
##jo
##jud
##fr
##fuss
##11
##oust
##inery
theor
##inge
##oring
##arms
##itan
##omer
##ometer
beard
beers
##leine
##idt
shin
shipping
##keep
##imo
stool
lil
##ching
##chez
notion
nolan
##omew
##amins
alleg
##river
chi
chow
choo
chalk
choke
upside
uptight
worms
fron
frost
wells
##user
teller
##oli
##olomew
backed
backyard
spats
spots
theme
##umann
brock
mayh
caro
amanda
ammo
tray
trump
##bec
peck
##emois
unpr
unne
blair
marlon
scre
##issippi
lovebirds
gro
roots
finder
emer
embe
elij
##fton
mississippi
fazel
##orde
phoen
madeleine
serves
morris
strung
stroll
resort
resem
interpret
insign
parry
reconsider
divers
cheers
hurric
glimp
readers
accuse
clevel
ahm
foundation
invention
prel
caps
##etto
stuffed
barber
barney
pawn
prescott
edition
restrict
christy
casey
bookstore
hopefully
graff
graph
##gins
braces
indicate
conserv
huntin
mademois
stepping
chancellor
dinosaur
##oked
admission
eleanor
salvy
burden
calc
##ippe
articles
##apsed
stupidity
recorded
richest
extract
experts
transit
impat
##tenance
lando
landon
radical
contrad
loses
nearest
protest
freel
marker
martial
mouths
kisses
penal
earthqu
##zzo
##bridge
attacking
basil
ordin
respected
peaches
##iki
sandro
welsh
ringo
fears
risky
teams
carlton
mainfr
campus
greenleaf
circulation
cept
ceiling
claus
disappearing
sanchez
estim
estimate
preparing
threats
cellular
senses
approved
approxim
yelled
potter
percentage
examination
##ographic
moonlight
doris
existed
##ropol
theresa
balcony
massach
dupl
projects
marshall
identical
purposes
olive
opportunities
combined
mccord
corners
villain
cosmo
pumping
pearls
injury
kidnap
recommended
disposal
hypoc
dental
spreading
clayton
principle
materials
shhhh
pirates
banging
##igel
cynical
250
sophisticated
shadows
bounce
phillippe
literature
recovered
affection
etc
##rogen
relief
##regon
rexroth
horns
salvage
##vania
fletcher
gloria
companion
alphabet
duties
crippled
##irsch
detonation
permanent
greek
pigeon
bundy
thrusters
potatoes
sofa
toxic
acceler
capitol
undressed
gibson
specimen
sullivan
amateur
stubborn
lyssa
shuffle
maneuver
disguise
lillian
overwhel
rendez
lechter
acquaintance
krypton
hazard
phantom
fianc
kaufman
lonesome
composer
wilhelm
bartholomew
dmitri
pneum
voodoo
zuzu
unnecess
elijah
fazeli
phoenix
hurricane
glimpse
mademoiselle
44
aah
auction
bah
bats
cz
cue
capp
cunning
dorm
duct
eter
faking
fib
hast
hating
hana
iced
kinc
kron
lump
loop
nations
nigel
oven
ols
ounce
panc
peak
rul
rena
sings
tires
ugh
va
vanc
voc
wud
zira
##oven
##uy
##tiff
##ext
##rr
##rill
##rator
##break
##name
##names
##nik
##iors
##iya
##pons
##sp
##mel
##wely
##vous
##fied
##ouver
##eres
##erman
##inent
##inated
##anas
##orous
##orty
whiz
##enmeyer
##isk
##isance
inapp
inex
beware
welf
haird
##secker
stad
stag
stakes
stead
##cht
##chief
##chev
##ams
##amis
##illery
##ooper
soze
ally
outdo
##oded
sul
sump
##opic
##opia
##icut
worf
worsh
frog
fridge
##acks
alg
lookit
saus
##ively
plaza
##ulator
segr
sefton
arson
comed
##endel
spain
spice
convert
##ours
brooke
twin
offend
amuse
enh
enlist
pepper
quinc
drool
drama
blink
blunt
bluest
betsy
##elius
bugging
scope
##thouse
##issy
happenin
wretched
sorrow
grendel
empt
##asses
crumb
croc
adolf
advisor
hoff
mint
minim
minus
lotte
uhm
courthouse
misses
missus
flop
assess
##inton
##eeney
traitor
sera
lax
##shed
##print
intercept
schiz
##acing
contempt
##igned
dieter
turner
glam
foster
clement
harvest
payin
compartment
##avitz
farms
endanger
senor
sounding
prescription
childs
childish
eyed
darrell
figger
supposedly
evolved
speck
complications
compliments
##otto
franky
infer
##ontane
deaths
indo
hunsecker
cora
georg
discoura
alma
##oking
##ologists
burgel
regiment
regulations
secretly
liking
magua
rae
proposing
grease
classy
perfection
distrib
experiments
completed
addict
absent
psychopath
felson
jerks
squat
prototy
##rams
freud
tyr
vibe
##coat
dresses
paula
pauline
fixin
musician
##visions
sunrise
courtesy
valet
growth
##boro
solo
##aaa
sherry
closes
torrance
##ilians
appreciation
violated
maintenance
sadd
circles
cecil
roller
gerald
models
connecticut
joining
apologies
particles
suggestions
grounded
ants
definition
bowler
difficulty
##works
observe
holiness
tales
rains
pinned
sharing
cups
searched
organized
climbed
supportive
deserted
receiving
attraction
shocking
performing
professionals
##lights
bells
randall
puzzle
lindenmeyer
ambush
interviewed
lucas
rapid
videos
brandy
urge
virgins
grades
rosa
galax
venge
provided
hamilton
ripe
disturbing
broads
broadway
languages
gambler
cornelius
180
chopper
witches
plaintiff
magnetic
snapped
encourage
cuban
jonah
stinking
dishon
##uzzy
guaranteed
150
typew
whaddaya
holler
journalism
occasional
panthers
challeng
clouds
despise
benefits
bartender
application
chewie
drowning
kiddo
vietnames
pursuit
candles
teenager
assassination
gregor
initials
##regard
humiliated
bourbon
##worthy
crooked
hustler
sympathy
duffy
substant
tamper
oooh
platform
delightful
dwar
paso
unlikely
dutch
jaeger
nuisance
nyah
rusty
whispering
maureen
assembly
discipline
unreal
adopt
lonnegan
nasa
helmet
grocery
heavily
ropes
forgiveness
inspiration
corrupt
muffin
multiple
dixie
underestimate
contractor
australia
gaston
meeks
flaemm
scenario
canadian
paranoia
symphony
lesbian
altogether
bennett
categ
fierce
llewely
cleveland
freelance
mainframe
approximately
rendezvous
unnecessary
eternal
kincaid
vancouver
inappropriate
welfare
segretti
quincy
bluestar
vietnamese
llewelyn
29
27
ak
bir
bic
bik
cau
clem
cush
dine
drey
ecc
fert
fetch
fuzzy
gown
horm
hicks
iv
ils
kinky
ling
lag
lund
moth
obe
pace
rave
ripping
sou
tid
tch
vows
wand
zavitz
##lay
##overs
##uating
##rine
##rane
##rina
##bat
##bby
##yll
##iology
##gus
##sis
##cal
##core
##hop
##front
##ouri
##onic
toon
##lla
##orp
##oral
wheres
ana
##edict
##owing
##etical
##etics
##itage
##itious
##itary
##itations
thatcher
##uties
rek
rely
reel
revel
repress
revers
whatiya
beeth
wease
meyer
hauser
##iders
shir
##iman
donít
donovan
stitch
##verse
notions
##ithium
##ammit
##enton
##entially
candle
##allel
nev
nex
abst
##eable
chad
chili
##icity
##racks
##eston
herb
righteous
mansion
##gey
loath
##ista
whereas
##ifully
##olt
##olph
arse
aramis
spear
spies
spaced
conrad
offensive
carson
aged
clut
clair
leff
enid
enri
makeup
##bean
overse
unload
mold
moore
bets
hash
intu
intimate
marcia
coha
scound
scars
undert
lovejoy
helena
groom
waving
remo
##anges
leap
leagues
##assing
##tage
##perd
cro
swat
##ptic
hog
mining
uhura
monstr
missouri
flames
flipped
assured
phase
phoney
pharm
disrupt
##quire
##quette
##quila
crabt
crabs
##redict
mindless
headlines
resident
resurre
interpol
schumann
schuy
boz
boards
##arez
slit
slaves
##ignment
polar
attending
finer
planets
accus
accoun
accusing
tease
text
thanksgiving
prejud
tennes
##etts
situations
differences
endless
barker
barracks
pickin
metropol
restore
restless
eyel
prices
darned
millie
skipped
skye
fighters
confuse
passeng
##ivable
cola
colomb
infl
signals
beha
humble
##iera
indicates
blooded
dela
hunger
hunters
steed
##insk
geoff
starve
starks
firemen
##ensity
depri
discount
sexually
messenger
##ucing
ridin
regula
windham
touchy
artoo
redne
native
louder
rafe
midget
gladly
transpor
added
specialty
##ervo
absor
rufus
squir
accidents
##coon
supervisor
purity
publishing
publisher
##ounced
positions
values
umb
reaching
irs
tougher
layin
turf
denying
sandra
catal
torment
cardiac
located
locals
bottles
rises
spacecraft
carlotta
maine
mainland
vanity
hallway
saddle
geek
verona
posters
accountant
witnessed
amazed
furious
equals
delivering
angelo
quarantine
heroic
physician
masks
idiotic
approval
pushy
talby
civilians
panel
theres
arriving
arrives
conditioning
organize
organism
issued
harmony
authorized
duh
archer
keyser
subjects
flee
angie
rosen
requests
hawkins
severed
ethics
gallery
accessory
whisky
positively
malloy
cooperation
battlefield
appointed
jonathan
included
representing
representation
representative
terrorism
vallens
activate
roderick
pumpkin
reno
rennie
trading
hypnot
uniforms
expertise
tanker
wendell
wesley
products
panther
optim
demands
1000
shaving
mattress
explosives
recovery
iii
oscar
conducted
katrina
linked
microw
relieve
experiencing
ignorance
misunderstand
scenes
mechanical
declared
independence
sinking
fortunately
commercials
licked
industrial
bulj
flowing
unpredict
cuervo
dillon
insec
frequency
vegetable
hutton
joanne
instruments
nasal
##donald
suspicions
inherit
observation
trauma
prostitute
interference
inspired
rmph
colleagues
electronic
historical
narcissus
dowd
havana
bronx
yonder
alaska
immortal
utterly
dreadful
implying
specifically
volunteered
mourning
stensland
superhero
cedar
##folk
twentieth
amendment
ambitious
scooby
disagree
adrenaline
barrenger
broker
comparison
refresh
panicked
massachus
fiancé
pneumonia
kronos
olsen
hairdress
stadium
georgia
ilsa
beethoven
weasel
lefferts
cohaagen
crabtree
schuyler
tennessee
passengers
47
4th
55
85
ale
aub
bot
bim
bind
bib
bates
bij
clemen
cbs
dors
dwell
eater
epid
gil
gem
gide
hirsch
jets
jumbo
kre
kore
kitt
lena
munch
motto
nup
nipp
ooooo
riz
ramp
render
rasc
sque
sissy
ti
tink
tux
vest
vain
votes
wl
wan
wilt
wiring
zul
zip
##lvania
##occ
##uge
##tes
##top
##rations
##riter
##rari
##aac
##bin
##ban
##bry
##bok
##bility
##nge
##nels
##ii
##iate
##zi
##gans
##ski
##cat
##cuff
##wash
##weed
##hal
##fty
##fare
##10
##inck
##inate
##inished
##ata
##atin
##edith
##owa
##otine
##itals
##asm
##utz
heine
heming
##ereo
ree
reib
rebel
hail
hacker
##levant
##idote
##idency
isaac
golly
shade
shorter
##sell
##ala
forens
##ims
stoo
stif
stashed
stella
stereo
lia
##verick
##chess
##lyss
neb
nels
sollo
abbe
outpost
gotcha
chunk
##oper
atom
debi
deploy
##ilation
everett
sayer
##usinsk
mans
pla
plank
plato
##igod
##iggins
##istan
##ifty
gump
arlo
como
##endar
##aborate
willet
backpack
spine
sperm
spontane
brat
offs
mayfl
caring
cargo
carries
##ousing
troop
##apo
claw
download
moreover
blades
betting
mule
marco
marrow
cox
scooter
gras
grusinsk
newcom
imbe
plead
##pless
emm
lasts
throne
elo
elaborate
##uda
##izations
crock
smy
smashing
hock
hoax
maverick
perry
courses
flunk
flaw
listenin
suppress
handcuff
startin
phyll
hearst
dischar
traject
traced
reserve
intercour
throughout
insulting
param
sling
##orrh
context
appe
appleton
warner
##roid
gland
glue
babbling
reader
teasing
tequila
harper
harlin
harrison
mornings
deser
barbec
paw
pickup
dolls
hotter
apoll
apiece
beautifully
forgets
promising
##iba
reliant
skating
honour
bedtime
awright
##gina
bully
simulation
confined
hearted
##iva
info
behold
delmar
madness
##lands
corb
corny
stares
incor
incap
##ensen
##ensed
discl
freely
admired
admitting
robbers
salon
##sylvania
defending
grandchild
shipment
windsh
artific
sample
subc
beatin
hanged
lounge
raft
musk
propag
midge
ordering
greed
classroom
banking
losses
cooler
protocol
nickname
meredith
accidentally
caen
caffe
maximum
laughin
publish
##ergast
posse
floors
##bris
sunk
##bted
pressed
majority
misd
honorable
smartest
feast
##aldi
creates
##maid
hopkins
packs
brien
deepest
eyeball
norbert
footstep
appreh
armored
risking
mainly
halloran
campbell
relaxed
boarding
cease
verse
verbal
allowing
disappears
tasty
healing
required
gardner
addressed
masterpiece
princeton
marriages
antidote
suffoc
loads
sensible
creation
obsess
recognition
mcg
mcint
##burgers
tricky
shari
ruben
mmmmm
portal
towers
melvin
juan
##roph
buttle
detailed
italians
terrifying
massage
masseria
concerning
duval
technique
embarrassment
generation
precinct
cousins
hatred
bananas
##ophone
anglo
degen
complaint
requesting
forehead
employment
tourists
relevant
repeated
shrimp
gardener
execution
magnet
funding
servants
references
amongst
miracles
persist
shifts
negotiation
associated
gaining
cancell
partnership
compete
principles
priests
currently
barnhardt
attempted
rigged
reservations
applied
mummy
mumford
warden
chewing
critical
explosive
cadet
affected
qualities
micro
dewitt
vito
teenage
ummm
wrecked
humiliate
ironic
mysteries
warriors
oakland
mechanic
revolutionary
sympathetic
gestapo
tribune
bolt
baldwin
2000
cheeks
instantly
satellites
confidentiality
springs
sparrow
tactical
##lowe
essential
molecules
pipes
memorial
receipts
battles
mandrake
pupils
##writing
rejected
bundle
gruner
tolerate
explorer
measures
wrestling
synth
exhibition
parasites
pennies
pennsylvania
plumbing
colleague
annoying
sssh
commodus
involvement
albania
albanian
democratic
sustain
quadrant
skiing
wacko
purchase
meltdown
demonstration
prettier
fiancee
pendergast
columbia
georgie
irrelevant
romulan
accompany
boule
anarchy
##thorne
refrigerator
acknowledge
jasper
otho
sooze
horseshit
corky
aliens
chromium
irrespons
counterfeit
microsc
incompet
brynner
shinzon
insignificant
impatient
czar
prototype
typewriter
rekall
enrique
microwave
buljanoff
hairdresser
bijou
clemenza
gideon
rizzo
reiben
sollozzo
grusinskaya
phyllis
trajectory
intercourse
apollo
footsteps
irresponsible
33
36
911
au
aer
alyss
bont
bial
berg
bode
bitten
cot
cic
cine
cel
cors
cair
coop
dak
dried
dair
damp
dances
fet
fitted
gle
gust
gina
hoop
jin
jude
ker
kle
kur
kitten
mend
nause
nite
nude
nba
oy
pim
pans
pins
rally
rival
ratched
sip
siber
tart
tau
tipped
tucker
ud
vet
vas
vap
viz
vald
vander
wisc
yank
##lain
##uett
##rom
##rum
##rous
##rative
##rants
##robe
##bath
##bott
##nob
##nity
##zini
##gant
##gio
##pit
##pace
##psy
##dn
##did
##dling
##kon
##cest
##cup
##wer
##will
##water
##wyn
##hm
##hor
##houses
##xl
##inction
##atu
thesis
##anium
whitt
whipped
##enson
##esus
anat
##aro
##isin
##ision
##etz
##etric
##itas
##itter
##omin
##asions
inev
heir
heath
bem
beep
mead
dose
##stream
isab
shab
forcing
stun
stern
stumbled
liza
##verty
knowin
##chm
##adena
myra
nods
##amo
##amoto
##anton
##antly
##entric
canary
##allows
sole
outstanding
##oda
##rig
aspect
chast
chilton
pry
pron
prague
##opy
##opher
##icon
##icable
##icial
##racy
##estyle
worley
##unting
herman
alamo
##inder
##ilizer
lookout
saves
plut
##istically
##uckle
seas
seiz
seasons
##osity
guer
exotic
##olete
arra
arnie
arlyn
backing
spic
spike
conor
conver
convey
lett
##umble
bred
trop
##apse
cluett
lease
leons
workshop
overp
overs
overre
overtime
peop
aft
quart
quint
drugged
gondor
blo
blur
blend
marv
mario
mariet
marijuana
bugger
coats
scouts
scattered
##issa
##issom
undo
hugo
grove
grissom
rooney
newly
joh
giron
remot
##placed
##angs
##anging
poe
poke
poverty
criss
keeper
swip
switzer
smiles
shitless
lothar
hike
doesnt
monument
assed
assurance
##cian
handing
handic
startled
phen
runner
secured
disse
disney
disorder
elsewhere
##ateral
##shaw
parach
slot
slug
harding
apprent
##onsin
polo
attach
financing
##ggers
payoff
paycheck
tril
invasion
invitations
prev
preced
desires
menace
surfer
sitter
barrier
barrels
babys
preserve
mets
restored
arena
untouch
prominent
secondary
lawrence
relay
skunk
youngest
grabs
awww
##otte
policemen
airlock
aircraft
infr
infilt
significant
##nov
doorway
trusts
milton
consent
delusion
shoots
starters
expects
deputies
sidewalk
benedict
freezer
retail
snot
snatch
snitch
forged
collapse
##ucci
rides
burial
calendar
patsy
grandpar
artists
artillery
curly
winch
conclus
livingston
raven
raving
##umbling
extent
extinct
reflex
transpl
destination
dickhead
mistress
##awk
ruins
informant
felony
nearby
squirt
explaining
paste
caf
dresser
supermark
michelle
kissinger
coverage
judging
##zzzz
##brush
##heast
protective
casan
casper
drugstore
treason
valid
shortage
drunken
boatwright
neglect
armitage
devast
radioactive
bombed
192
bleek
circuits
verge
churchill
limp
gerry
shops
lotsa
healed
correction
karla
electri
colorful
appeared
##aius
obser
surviving
prayed
beaches
blocking
sheriffs
vacant
admirer
exposure
taping
portion
portland
collecting
screamed
piggy
grif
sarc
reminded
meaningless
cocky
reprod
##ega
cheaper
duchess
archd
archie
lasher
stockings
luca
crawled
precogs
videot
claiming
banner
banished
ratings
rambo
ramona
cyber
cyrus
ashes
rosato
domini
employer
adams
arguments
ethel
goddamit
congratulate
shrub
approached
celebrating
chops
taller
talley
indiana
fundament
tunnels
inspection
cartman
cartoon
referred
restaurants
punched
activated
lapd
fiji
lednov
strangest
renew
unfinished
vari
briefly
wolfi
fascist
acquainted
experimental
implant
currency
universal
ferrari
negotiating
pornography
astron
hobbs
hobbes
despair
pouring
wardrobe
pitcher
holidays
applejack
terminate
cheerle
membership
lacking
prosper
punks
vitamin
troubled
flattering
teenagers
##ebra
producing
##ulsion
gutter
whistler
replacement
becky
savage
convenience
sacrificed
kilomet
pitiful
lynn
ultim
mechanism
surgical
spinal
tribun
iraqi
northeast
substance
championship
bolsh
tammy
waddaya
premature
scrape
burglar
volunteer
vickie
##ecou
tranqu
bushes
philosophical
resignation
established
pasadena
tactics
increased
350
omel
nellie
athos
muddy
imperial
gillis
recruited
recruiting
khrus
tatum
grammy
controlling
consciousness
favourite
anesthetic
intimidate
tempted
altitude
republican
maniacs
swedish
slimy
signing
praetor
economic
fisherman
jeremia
reinforce
crusher
prospects
nicholas
retarded
selena
bubber
bubble
dialogue
riddick
turkish
wilderness
democrats
chronicle
cosmic
krauts
sutphin
caution
korea
saxophone
arroway
drexl
override
resources
sniffing
curtains
thoroughly
spectacular
hughes
distinctly
cockroaches
nashville
blacksmith
travelling
exorcism
insomnia
immigration
festival
edmunds
innocence
fragile
vincennes
scholarship
enthusi
authent
carolyn
conservative
duplicate
outdoors
dwarf
eccentric
eyelash
unpredictable
massachusetts
hemingway
imbecile
smythe
windshield
caffeine
boulevard
alyssa
bontecou
bialy
cairo
dakota
taupin
viznick
wisconsin
isabella
gondorff
marietta
switzerland
grandparents
conclusions
kilometers
khruschev
jeremiah
69
600
78
aqu
bos
bers
bix
cd
dual
dah
dys
gat
gand
gul
hath
hare
hides
higgins
ig
ist
iowa
kee
kop
ketch
lent
lain
lass
lens
mice
mph
muss
moose
moses
nune
nsa
oly
ober
oona
oregon
pest
pame
pint
rim
riv
rye
vile
wart
witty
xxx
yog
zoe
##lson
##lets
##lift
##letic
##liest
##oided
##uar
##upp
##uild
##try
##tub
##eur
##rimin
##ais
##bc
##bis
##buck
##buster
##you
##zie
##good
##pool
##sucker
##dles
##drop
##mun
##mind
##worm
##hound
##jan
##jamas
##xious
thorn
thail
##erone
##inum
##atr
##atore
##atisf
##onent
##onium
##aning
##anne
##anche
tol
##ingu
anten
ancest
##owl
##aria
##eta
##iti
##utions
heap
reign
reph
whatt
beverage
haunting
docks
##leg
##leen
##storm
##struct
sham
shatter
shades
shorty
formed
stut
stash
stump
libb
notified
noisy
nek
alla
allies
chaz
sued
##ando
##ieval
##rag
##raine
##rault
decks
seeks
alger
alimony
##inda
sap
sakes
ort
orb
lov
##igur
##igning
timer
whereabouts
##ulating
couldnt
##iffe
##oline
##astics
willya
backward
spa
spitz
conner
lethal
##umper
carmen
carrier
ammun
tresp
trinity
ench
needy
overcome
peking
ungr
unarmed
moe
moh
bled
blamed
blaze
intest
intel
##berries
mare
marble
marines
##agan
##agious
scru
scores
hubley
daytime
underp
##ishment
thoughtful
groo
grind
newsw
##ipher
##wny
mustard
##iche
emph
empress
##adys
leaks
##adek
elbows
elias
##uddy
crude
probability
couer
courier
sweeney
hoot
greatness
lottery
acme
flick
flare
floyd
assets
handful
handwriting
playboy
##orda
##ilda
disarm
deadline
mothersh
laf
##eya
##shell
stray
interv
camel
insert
insists
insanity
moms
boast
slash
slower
slots
slipping
slaver
slippers
recorder
charter
contagious
warped
warfare
diver
##ormal
glove
babes
foll
finishing
accomm
teas
terrain
payday
payments
inviting
compulsive
##avius
stuffy
barf
barks
barrett
barzini
paley
##ashi
wonderin
gibar
holdin
presidency
meter
easiest
christs
christie
standin
apes
figuring
promote
evident
millenn
##ceptive
genev
obtain
fightin
bullsh
worryin
goddess
confessed
shutting
airlines
infirm
lighthouse
trusting
brakes
bracken
humperd
sybok
indig
indef
indicted
dreamer
consist
delusions
reasonably
hunk
hunh
hunted
madmart
starved
##neider
incom
##ioces
truths
lieb
snort
snip
strapped
colleen
elegant
robbing
caliber
patio
grandson
regrett
artistic
peterson
husbands
sweetest
painter
drain
redhead
filter
subt
magruder
senseless
presidential
raises
belg
richie
richards
dearest
greer
worthwhile
extortion
horace
distingu
refund
refusing
ballroom
testified
transform
medio
medieval
banker
surprising
erase
ergo
rupt
squeez
freight
merced
teaches
flyer
topic
##oca
##ocated
pleases
judas
##heim
honesty
caswell
treats
courts
misplaced
davidson
connor
involving
##ificance
respects
strongly
slowing
junction
damon
norfolk
shermin
##boards
communists
bombing
pisses
dangerously
carlo
woodward
screwy
fredo
stationed
hmmmm
postp
buncha
directing
homicidal
##cuted
tasted
macle
cowgir
esther
suckers
apologizing
equality
particip
avoided
dumbest
##anners
quarrel
suggests
suffers
sensational
crem
observed
commands
rainy
ghetto
pinch
pinta
smokin
guarded
guardian
politicians
exposition
dumps
towels
collected
panes
juarez
##itorial
butts
grie
##paper
duane
bella
mixer
roberts
simpson
marshm
weaker
introduction
virginity
switching
ramelle
gangs
ignored
ashore
##ilsen
tourist
wilkes
101
ethical
austria
developing
moods
britain
bayon
mailed
kross
114
nicolet
nicotine
skywire
##icycle
encl
includes
butterfly
bernard
chained
albany
pumps
napkins
woodsboro
rheya
jessie
cathed
lifestyle
##mmmmmmmm
elevated
stephens
sedated
corporal
competitive
##club
acquired
regrets
gateway
ferrie
hayes
joyce
puppies
nursing
nursery
stamped
phillips
commerce
paintings
novels
shelby
lobster
caddy
kimber
automatically
versus
ministers
convincing
recommendation
responding
links
pistols
crucial
hesitate
contained
virtually
rags
clowns
humiliation
humiliating
trembling
ignoring
minority
mckin
##lihood
crooks
shotguns
salvation
adjustment
bumped
suzette
##xxx
blessing
swallowed
pooh
##walker
analyst
analyzed
luis
establishment
hitchh
athletic
007
pipeline
yupp
##arnation
khan
stalling
battal
hemorrh
schmidt
stalker
lengths
reveal
revealed
leaning
obstruct
obstetric
inherited
exhibit
superstition
intellectual
roper
inspire
torpedoes
mimi
conquer
conquest
tramell
contribution
announcement
diplomat
corruption
axe
inquiry
permitted
masturb
sleeper
gauge
hartman
ankle
scrambled
stranded
inconvenience
biscuits
fossil
coconuts
remarried
sylvia
calculated
swayzak
outrageous
protein
spanky
overheard
unemployed
drifting
titanic
lodge
eliminate
condemned
precautions
motorcycle
fugitive
veteran
loosen
wagner
woah
emerald
prelimin
restricted
penalty
shuffleboard
comedian
crocod
minimal
clementine
discouraged
substantial
obey
ravell
shirley
nexus
abstract
monstrous
accounting
redneck
umbrell
wladek
##occup
stifler
nebula
corbett
incapable
subconscious
dairy
inevitable
bembry
lettuce
peoples
remotely
casanova
archdioces
tribunal
bialystock
gandhi
kopals
nunez
olymp
pamela
xxxxxx
thailand
rephrase
ammunition
ungrateful
scruples
mothershead
accommod
gibarian
millennium
geneva
humperdinck
mercedes
65
63
87
bm
bry
bake
bak
bicycle
cet
cact
cinc
cmon
dand
dul
dab
dice
dile
dott
duel
fern
ga
gurn
gals
gaff
hin
hed
hilar
ií
kw
kessler
laughter
lark
lounds
lining
mit
mop
mma
mirth
morde
nym
oe
ola
oops
oasis
pion
pix
pino
poop
rut
rus
rapp
rattle
ruled
sven
sought
ssh
samp
tying
tijuana
vot
vast
vine
vene
vatic
vista
wool
wits
wench
yorg
zion
zammit
##lace
##ointing
##ucc
##eenth
##eanor
##rid
##rater
##rings
##rime
##bre
##bach
##brew
##yers
##yamoto
##nea
##nard
##zs
##zas
##zetti
##gra
##gil
##gled
##sberg
##mad
##mons
##most
##kar
##cur
##cap
##cula
##wl
##wa
##wanda
##hen
##holes
##vale
##flies
thugs
youd
##eroph
##inn
##inin
##inos
##innat
##oni
torah
##orus
whips
whites
##owitz
##itories
##itutes
##omi
##omen
##omber
##asa
##asers
input
##rep
heater
hebrew
reich
reinc
beet
begg
weary
meg
haired
halo
havent
##lee
##steen
##ghy
onions
shee
shaman
##sexual
fores
forming
ster
sten
stack
notices
##amatter
##anth
##illion
##ooping
areas
sooth
abbott
alle
allig
##inkle
##rift
##rief
shelf
chis
chand
hereby
suicidal
##oped
##opus
upbr
anyplace
##icia
##ieu
vein
##ppers
deception
debris
##unity
fret
frames
herd
alarms
manzetti
oral
orgas
oranges
organs
##geois
plaster
plumber
timmy
seamus
selection
gund
exits
##olia
arist
arctic
##abilities
##ounding
##obey
spur
brow
brid
brink
brett
brung
carved
carav
##ousine
amity
amused
trashed
agitated
clitor
leash
happiest
needles
overt
overth
overboard
overload
pel
peasant
drisco
##empting
unb
unnatural
bliss
blaz
blaine
betcha
##berman
##bergs
marse
bubb
coch
##agara
##aggio
wont
undead
wrists
soran
grill
grange
roston
newt
##actory
jock
believer
mustache
putt
remorse
emin
poking
lasted
leaf
elbow
crm
crows
crops
ads
adon
adore
smiled
isnt
maids
minors
mineral
realizes
homecoming
perse
perrault
uhhh
monk
flour
flock
faerie
actin
##ogged
runaway
hearin
disobey
deadbeat
tractor
cracks
##shi
strat
doneghy
reset
reserved
proving
##acs
##mma
yale
recl
charenton
hardcore
##angeli
sonora
functions
fungus
chevy
##phins
glance
glitch
attended
attempting
foc
harms
ahold
tripl
trifle
dealin
preoccup
desec
farren
drivers
barge
barking
senators
cutest
metro
pointless
bookie
unto
##ibles
##peed
billions
mille
skim
skate
skank
obno
grape
gravy
await
questionna
biting
earrings
##aha
airborne
colet
infat
humility
##ieri
indict
induce
consuel
bloodshed
hunner
hungar
madonna
steer
geese
starboard
##cco
blackjack
inclined
dino
deter
waterfront
disco
bodygu
powered
snuck
straps
collateral
riders
ridden
calf
registration
esp
sweeter
dracula
reduce
reduced
subd
magda
uncut
racial
musket
annih
orderly
greene
extensive
extrater
clearing
refuge
bitching
testifying
glades
transition
transvest
bankrupt
radius
err
ern
erotic
catcher
cooling
squire
hospitals
fastest
markers
coffins
imagining
popped
accidental
pasta
condom
wallpaper
privately
repairs
hospitality
superintend
purg
oughtta
doucet
##ounce
costumes
macho
machinery
blowin
##bruary
rays
jefferies
##oula
considerate
courtney
spends
invested
investors
february
valve
demo
demille
##ifications
siddown
illust
illusions
roadbl
striking
iranoff
strongest
michaels
bastaldi
toughest
motives
advent
ticking
jumpy
jumps
footprints
layton
turtle
bathtub
crosses
sandman
##cribe
weirdo
catwoman
elle
ella
ellsberg
silo
lowest
feared
woodly
screws
bleach
occasions
sadness
relaxing
roma
vermont
camper
limousine
temp
splitting
connects
hyper
continuing
homo
##loaf
presented
investigations
investigators
equally
preparation
hideous
##keye
kara
karras
louisa
programming
gasket
gasoline
##uthorized
drawings
territorial
necklace
obsolete
datab
clarify
mcp
mcgr
dependable
##burst
difficulties
credibility
expend
taped
exceed
excels
dumping
sleaz
feeds
intruding
bathing
views
juven
mexicans
fingered
grift
notebook
meaningful
janitor
climate
climber
climax
supporting
langley
balbo
balanced
massac
belle
belleroph
agrees
cooch
generate
conversations
puzz
##ennial
warmer
##aminated
software
precrime
devils
uranium
bondage
rambling
gangster
angles
ashley
rosaline
sights
jealousy
females
breaths
statues
apparent
argent
mutants
development
repeating
remaining
gaye
gayle
immune
mobil
nicest
villa
skywalker
plainly
telephoned
meatloaf
mentality
blanks
otto
oceans
thursdays
vulgar
##nnn
rhonda
injust
injuries
dusty
falco
lifting
instructed
improved
gained
canceled
debrief
facilities
lesions
wessex
officials
boundaries
demanding
negotiations
sophia
rackets
hudsucker
bouncing
flashlight
literary
chambers
spooked
beams
monkeybone
terminated
tags
cheerful
launched
##blance
##uthers
conceal
conceive
assassins
produces
litter
tubes
fascinated
rotting
reconstruct
niagara
divided
bourgeois
racing
racist
raccoon
scenery
deposits
lynch
salvatore
distracted
distraction
##esthetic
semi
semester
sewing
sympathize
chuckie
cowardly
norton
alternate
interface
mamma
monitoring
premiere
cocktails
administ
administer
burglars
democracy
items
delayed
casualties
bidding
hatchet
fluid
pollux
appealing
subscription
dillinger
chimney
functioning
frequent
exceptional
summers
compromised
ditched
skept
unauthorized
butchered
restraints
restraining
temptation
prosecution
environmental
republicans
dalai
miyamoto
exaggerating
certificates
economy
jellyfish
outlaw
parasite
globe
elephants
merciful
superstitious
parrish
tackle
threads
smuggling
succeeded
klute
sustained
shaped
brunette
chronic
tortured
gymn
kalen
sutton
nostril
velvet
merchant
merchand
toothpick
toothpaste
shreds
abduct
carnival
miniature
additional
liddy
##ukk
ankles
arkansas
cocoa
ownership
resource
charleston
charlotte
petersburg
inconvenient
fossils
##oppy
quantum
coconut
encouraged
rhyme
irene
irena
bruises
grenade
sanctuary
efficiency
kobay
##fighter
##initely
supplied
housewives
mathematics
pyram
tomatoes
feminine
anesthesiology
derek
gwen
hassle
scalp
funniest
cavalry
hinkley
zombie
screening
embezz
hypocr
algout
rapidly
vengeance
tampering
lingk
lundega
overseas
intuition
liaison
grasp
barbecue
cancelled
vapor
overreact
infrared
devastated
shrubbery
bolshev
berserk
lainey
antenna
ancestors
whattaya
libbets
slavery
indefinitely
madmartigan
cathedral
kimberly
preliminary
umbrella
kopalski
bmw
dilemma
gurney
hilarious
nymph
oeuv
sampson
vatican
yorgi
zammito
##innati
reincarnation
upbringing
orgasm
caravaggio
clitoris
driscoll
obnoxious
bodyguards
extraterrest
transvestite
superintendent
lundegaard
46
64
72
73
97
900
apr
aux
bery
biff
baw
cain
cries
dc
dag
dade
dunk
ewe
fon
fen
fraid
flex
fangs
gel
gail
hul
hips
ion
icy
jell
ka
ky
kap
kla
kaf
lace
lure
lonel
muck
mumbo
nim
nad
norr
ov
oun
pi
pm
pom
pall
ply
pate
pause
pies
pta
pank
ponies
ri
rol
rated
rors
rates
rookie
siz
sny
sier
sized
tus
vee
vind
vend
vase
xk
xen
yv
yoda
zen
zimmer
##lad
##lich
##lav
##lical
##lov
##uji
##tz
##tic
##tles
##tieth
##track
##eon
##aul
##bul
##bank
##bitch
##bons
##bury
##bugs
##nier
##iated
##iologist
##zuel
##zburg
##gom
##py
##sen
##moth
##mary
##muda
##kt
##kill
##cend
##crow
##wind
##wide
##word
##weg
##holl
##vich
##food
##fair
##15
##17
thai
##oubted
##inople
##ati
##atical
##onimo
##anches
toll
##lle
##lli
##llll
##llium
##orld
##enne
##edo
itch
##arming
##isons
##eters
##itel
##itating
##itational
##asher
##asma
android
hee
##erella
reek
rewr
whatsa
bees
beacon
meurice
meyers
hacks
##leigh
##idian
##gher
##ldom
shiny
##kees
fors
knot
stain
static
stored
lib
lig
##chn
##chach
##chai
nood
nobility
##amous
##amination
##entennial
cans
##urst
alloy
wantin
##rive
##ricks
chau
chel
sug
sung
sushi
prest
prank
upd
athe
anya
##ieg
##ppin
defect
frock
sau
sag
manic
manson
manpower
lovin
looting
plum
plag
plasma
goodman
guided
exh
exley
hisself
##oler
aroun
##astas
somers
##endon
##ablo
##obs
##obar
##obie
##earing
spac
spunk
spilled
spilling
brom
twink
mayonna
maynard
mayfair
carrie
neverth
nevermind
clum
clap
caller
##tyard
peer
peps
quaint
moi
moist
byp
muham
killings
##elity
marc
marce
margin
coil
coca
##agl
scour
scuse
scuff
scobie
##issance
undoubted
dayton
underway
sordid
grim
gramp
nightclub
rocco
wah
wage
imitate
afterward
putz
poets
##asser
elsa
olds
##udges
cran
crad
crate
couples
swift
hoag
shitload
realise
greatly
peril
perverted
##urned
monop
courtyard
missy
fled
flam
flint
asset
understandable
supposing
handbag
phaser
##eph
disbar
dispens
disregard
##quin
##quent
##quate
stub
trains
traces
crab
showers
##mani
housekeeper
serp
morals
morlock
##shots
resid
resolve
insides
proxim
parallel
pretended
boll
boating
bogey
##acles
slid
slugg
slugs
##orro
recoll
charms
charging
warhead
cheval
##phem
gladys
##onson
cleans
harp
founded
inval
invade
##ettle
##lesley
farce
farrag
endorse
bark
barrack
pappy
cuttin
bringin
##ultane
##ancies
picket
edna
editors
openly
fifties
thirst
eyew
excal
halfdan
booking
diem
darcy
darlene
gunshot
##aires
copied
reluct
hitter
genes
obed
grable
bulls
simultane
jez
password
shuts
colson
infinite
signatures
significance
consol
delac
delaney
##ussion
shooter
stevie
starck
stargher
##nec
##neil
##oko
retards
snack
admissions
##uces
robins
salieri
fulla
##ippy
petition
petals
array
filing
##liner
subl
suburb
majors
hangs
uncon
muscles
proph
ladyship
statements
richer
extrad
classical
profound
ballplay
visits
erased
keitel
foolin
owww
adds
addiction
addicted
psyched
shallow
squash
merit
imagin
operative
walters
pastor
condoms
condesc
privy
repay
reply
##ocity
##gann
musicians
stepmother
judd
posit
##zzi
##brand
pressures
viruses
virgil
bases
fees
valerie
cryin
involves
blueprints
largest
stricken
irony
##going
##govern
shorts
solved
solitary
bribed
slowed
garland
jung
brainerd
cabins
cabbie
advances
bustin
lays
layer
layout
baths
denial
denham
dennings
sanderson
witwer
formula
catast
cashier
deviant
ellis
commune
detected
alexand
jameson
thirds
doubted
escobar
halle
duncan
verify
allowance
posted
postcard
limping
limbs
accounted
germs
geronimo
fishy
macneil
castles
estates
amazes
prepost
frenchman
angela
louisiana
##ructor
failing
hooks
nosey
masc
sailed
##guer
draws
bandages
territories
correctly
holoca
##bbing
mcgann
talia
julius
raining
rainbow
gifted
rubbed
expelled
rivers
lambs
##ronic
melted
hostility
males
arrival
griff
cracking
##minate
lynd
berth
bermuda
technician
gimm
randal
generator
generosity
projection
pretends
successfully
lindsey
raping
pools
pathological
##affrey
banned
ratan
scottish
gordo
##eteria
suspend
galbra
furthermore
hawkeye
mccaffrey
hamlet
freaky
freshman
describing
tours
sporting
gallant
gaming
sinned
mailbox
assignments
pocketbook
toothbrush
scripts
execute
unharmed
magnum
emotionally
quoting
20th
cartel
jonas
##ermo
butterfield
targets
ledge
poww
strangle
shifted
unlucky
renard
rhode
variable
variety
concentrated
concentrating
cultural
mathilda
dumber
improv
gains
competent
unsolved
acquis
implications
panty
webber
betrayal
montgom
foreigners
hayworth
attempts
rescued
revenue
##ooooo
ducks
pizzas
##arajah
naomi
applic
chewed
spooks
pitched
fruitcake
educated
lipnik
cavity
candid
constantinople
reviews
pedro
pounding
whatsamatter
temporarily
franch
oaks
savior
divide
challenged
mantini
occupy
methodology
drums
distracting
miguel
semple
aggrav
cloaked
declaration
corey
nikki
hauling
prevented
tigers
substitute
privileged
biological
bolts
deemed
premium
obligation
jenkins
pentangeli
peanuts
documentary
luci
##itarian
casualty
tutor
octopus
beliefs
strawberry
criticism
gravitational
isolation
shouting
genuinely
23rd
tatiana
unreason
nominated
skeleton
neurotic
plotting
prosecute
cinderella
egon
opium
stalking
republic
swede
soviets
gorilla
tsch
praise
exaggerate
exploit
confirmation
weighs
fiddle
whitney
possessive
assassinated
mushroom
external
lemonade
parrot
consumed
landlady
inquiries
accepting
regional
cautious
maharajah
improvement
staircase
aspirin
crafts
simpler
corpses
initiative
dartmouth
elders
gazzo
remarks
cockroach
rhyth
correspondent
luxury
unemployment
anticipate
efficient
tumor
dolphins
enlighten
housewife
daryl
daryll
shangh
noooo
sculpture
slayers
oblige
tahoe
carriage
mayhem
resemblance
overwhelming
bahamas
renault
sausage
enlisted
drooling
emptied
glamour
figgered
saddam
galaxy
challenging
category
bicentennial
dreyfuss
tidy
repressed
nevada
resurrection
metropolis
behaving
inheritance
biblical
gilbert
krem
kittridge
grandchildren
propaganda
misdem
incompetent
bodega
cinema
fetish
jinx
##horvich
whittlesley
anatomy
apprentice
cafeteria
enthusiastic
igor
yogurt
nekhorvich
teasdale
infirmary
postpone
macleod
archdiocese
cactus
cincinnati
hinkel
mirtha
mordechai
venezuel
beetle
beggars
##anthrop
chisel
focused
harmsway
preoccupied
questionnaire
consuelo
juvenile
balboa
bellerophon
injustice
##ukkah
kobayashi
hypocrite
extraterrestrial
beryllium
klaatu
kafka
rorschach
snyder
##holland
mayonnaise
nevertheless
pepsi
undoubtedly
disbarred
recollect
farragut
holocaust
galbraith
montgomery
54
57
79
7th
9th
az
aston
aches
batch
bord
bending
cb
ci
cone
cess
cuss
cages
crick
cement
dang
doth
dense
dimin
diction
ez
eee
elly
eaves
fitting
fences
gap
gild
gower
gork
gaw
gaze
hir
hens
huckle
ib
ick
ivan
jest
jup
jeth
jugg
jules
ki
kg
kab
kint
kens
lh
lur
leel
lath
lull
lured
luh
lanes
ming
moo
mos
mates
mute
moust
ness
nour
niet
nyl
ping
pak
pater
pors
punt
pablo
rhin
rites
rushing
sz
sly
ting
tes
tad
tess
tul
tep
tents
tipping
tiring
uk
uc
vous
vert
void
wop
wain
wages
wann
wager
wishing
wolves
yoke
yarn
zur
zach
zaius
##lic
##uity
##upt
##ujah
##tu
##eers
##rough
##roy
##bies
##near
##nne
##nuts
##ienced
##gence
##pea
##pie
##pey
##dock
##dream
##driver
##made
##mute
##maker
##mobile
##cill
##cers
##wit
##hol
##horn
##haven
##vol
##jay
##jour
##jesus
##21
thx
##oux
youve
youse
##aters
##onious
##anny
toad
token
wham
whiff
whoops
anom
ansel
anastas
##eder
##owed
##arians
##isure
##isms
##etry
##itis
##omon
##ask
inoper
##aying
anderton
hep
heist
rect
rept
reef
bebe
beamed
weiss
weaken
weeds
doom
dove
dost
doomed
dobis
##idated
##sta
##sten
##stri
##stated
##ghead
onboard
##lda
gozer
shes
shiv
shaken
shipped
shattered
##kell
##sea
##aler
forge
forum
donkey
knack
knicks
sta
stard
stear
stans
stated
stove
stages
stagger
lipp
liability
##chs
##chen
##chron
noted
notch
##adda
noc
noct
noel
noses
nobles
##anter
##antages
##entin
##ented
##entive
##eek
canv
canned
nept
nelson
soy
socially
soaked
getty
abra
allan
justify
shemp
chal
chant
chink
chey
chub
chlo
chipped
chipper
choos
chaser
chorus
howl
pruss
upright
upstate
thinker
##icides
##iciency
##raved
##rained
worthing
dement
deuce
decker
dejesus
##una
frat
##acked
seeya
##oreen
##ilate
managing
loot
loft
plun
ohhhh
timers
##ulet
##ulum
sears
seldom
##ifix
##ifiable
exquis
hiss
arb
arbit
armani
compress
compton
##astly
willa
willard
backst
##aka
meaner
##obia
##nais
##nace
spat
hadda
haddon
brent
broth
brides
brute
##ittance
twas
twig
tweak
##icker
##ickers
carc
carmine
##ouss
ames
amar
amish
amado
amigo
troy
truce
troph
trooper
agony
agenda
clive
cluster
clinton
callow
leisure
enlar
##orted
##few
##feld
peg
pep
pegged
quell
quentin
droid
drastic
##emore
##ements
unle
unite
unident
unhe
unrel
##oya
blas
bloss
blames
blender
muh
mund
mugged
intoler
##elines
##elujah
marzz
marcie
buggy
coins
##agra
scur
scots
scroll
scales
scorp
hub
hubert
daydream
underdog
wrench
grotes
grudge
rogue
waal
waist
joints
siren
lifeform
afterlife
plea
leaking
leaked
thrilling
elm
elit
elton
##udd
probable
advis
swings
swarth
swallows
partly
partially
perk
perkins
perception
placement
monro
missoula
flown
playwright
##ordi
phasers
##athon
disk
disallow
dislike
wouldnt
##quer
##iffer
travers
crappy
##manus
headin
lav
lacer
##proof
stressed
strader
strasser
insol
insub
prover
proce
slur
slag
slime
slipp
slides
sluts
sledge
recip
contaminated
##ignant
warne
warmed
warming
diap
diving
divisions
meetin
sonuv
cheque
cheesy
##roix
breeding
glum
businesses
livelihood
finnegan
readin
readout
##ggered
harri
harlem
triangle
pref
##isters
menu
tenor
survey
dripping
schoolboy
endure
barbie
pajamas
wonderland
holder
sounder
metall
edwards
rests
##lington
excl
decoy
untie
monthly
##eeth
hurtin
evolve
##ibu
##ibur
##ibble
skies
skins
eighties
seth
awe
awaken
simulator
jeans
##azza
heartless
##erto
##ivate
infamous
trustworthy
exploded
##onto
syna
dreamt
consig
console
consume
consarn
considers
delic
delta
instructor
geography
geographic
geordi
firefly
fireworks
sorted
importantly
buyer
certainty
##ups
admittance
elekt
salmon
##ologically
rider
burying
burbage
burrit
sentry
sentences
eyesight
patty
deform
esper
arranging
millionaires
curl
curfew
singular
##apeut
draggin
redeem
filmm
filiba
sami
wearin
driveway
hangover
uncont
uncomm
builds
presidents
props
studs
reflection
gladiator
transf
meds
visions
visited
impound
impost
smallest
smallville
laurel
trainer
seller
specialist
losin
felicia
favorites
darkest
humanly
nickie
marking
throwin
##cox
condo
flyin
flynne
##oculars
superf
disappointing
costa
penance
penfield
pleasures
fixes
judges
floats
baggage
palermo
rosemary
presses
apartments
mischief
valium
demise
strangely
growin
illum
smelling
##efur
striker
boris
birdson
mentioning
affl
solomon
packard
packages
suitable
juneb
damages
norweg
sherwood
sheronda
##uffy
bathe
crossroad
denby
sandefur
armies
weirdest
cashed
arrests
communicating
cardboard
silicon
daft
##iliary
appreciated
violating
vanilla
bleeds
hallelujah
camps
occurs
sadly
sadie
lads
laddie
oppress
moderation
hyman
sanity
##cutio
macready
macaul
casting
##inois
furnace
settles
settling
aviation
dumbass
##annon
louisville
fails
royce
gaskell
photon
masry
antib
sensor
sensit
sensual
constable
bands
seafood
washes
speculate
clara
clarendon
mcgovern
mcmanus
blockbuster
frightens
ghastly
missionary
examining
sleaze
existing
leeches
portable
intrusion
collector
melod
juicy
malibu
therapeut
gripe
cracker
crackpot
janine
supports
dancin
creeper
berries
matched
roughly
licensed
lasers
stocks
stanzi
paths
chickenshit
motherfucking
banister
banquet
ramos
##ophren
cyl
cyril
ignition
scarecrow
booby
voltage
lifts
domain
domination
rumour
venus
characteristics
borrowing
kayleigh
mccall
ryuji
severance
releases
swords
gallon
sneakin
moody
storms
fridays
revol
sociopath
remained
corned
kris
punct
punishing
reactions
immense
immature
poisoning
poisonous
189
bums
chopping
throats
bedrooms
sexuality
cooperating
funded
snappy
bulletin
butterflies
blankets
silverstone
funerals
ott
hillb
miraculous
stinky
lisbon
strangled
pinkerton
shielding
illegally
mortals
peek
traded
falcon
stability
cultures
fingert
mathieu
lectures
denton
dumpl
##offs
impro
imprison
tails
tailor
chateau
tuesdays
ronny
tabl
debut
claymore
amounts
mileage
railway
unsub
beauhar
antiques
implied
ferry
mackey
wyoming
sophom
twisting
##oooooooo
stretched
cheeseburgers
wintermute
paden
regardless
bounced
grayson
applications
novelty
critics
kimmy
pitching
annex
replacing
automobile
osgood
rancho
recommendations
qualify
pursued
psychiatrists
cruising
cruiser
hesitation
blasted
##blers
concealed
joshua
picass
initial
beasts
deduct
dedication
##weil
clinical
passports
hacking
cerebr
whistles
savages
kinnear
nobleman
occupation
hanukkah
watson
sewer
actresses
networks
niki
ruthless
poems
fortunes
ozone
wadda
scraps
grasshop
razinin
##strong
warsaw
humpback
alfredo
cocksuck
bogus
beeper
athlet
essence
injected
imperfect
dismant
syndicate
detonate
gabrielle
neutron
vegetables
scams
recruit
decorated
dugan
pupil
vicinity
##omaniac
defeated
episodes
kurtzweil
egghead
altar
exploring
auditioning
telegrams
sweden
dictate
munro
yankees
##putin
sequence
groceries
synchron
heavier
liverpool
traumat
skirts
mercen
mercury
faintest
gynec
whitman
stirred
strategic
interfering
blackmailing
gabriela
dubious
flooded
electronics
diplomatic
compensate
carrot
lazar
inspiring
commodity
750
bruno
arrogance
translate
hysteria
perpetual
arab
fulfill
sankara
frustrated
gulls
penetration
penetrate
specimens
baptized
vibrations
carniv
leadership
hallucin
hallucinations
demonstrate
tattooed
linen
stairwell
prettiest
aaaah
biscuit
rooft
clicking
treasury
encouraging
accompan
aaah
binoculars
grenades
putterer
crucifix
advertising
drifter
townsend
consultant
departure
ecst
jaguar
rasp
rasputin
hammond
flavor
crazier
folded
excessive
evacuate
transmitted
impersonal
errands
verdict
hydrogen
continental
precaution
penitentiary
hendricks
telesc
stimul
intriguing
hippie
disconnected
destructive
ooze
##hyd
thighs
wholesome
seminar
braslow
carriers
kidneys
comprehend
obscene
cyclops
stabilize
asteroid
theoretically
chooses
fronkon
graphic
earthquake
earthquakes
ordinarily
cappucc
ruling
wuddya
inexper
convertible
enhanced
schizophren
inferior
unrealistic
souven
anaesthetic
geoffrey
deprived
catalog
optimistic
aubrey
dorsia
epidem
korean
nipples
tuxedo
zulu
emmett
handcuffs
discharge
artificial
suffocating
mcgill
degenerate
magneto
microscopic
bergman
kurten
udall
aspects
chastity
plutonium
seizure
quartet
marvosa
parachute
supermarket
astronaut
omelette
reinforcements
authentic
gulch
ketchup
algeria
underpants
incompl
liebkind
cowgirls
bayonet
hitchhik
yuppie
stenographer
alleged
alligator
gunderson
marseilles
cochrane
eminence
hunnert
database
expendable
skeptical
abducted
resourceful
auxiliary
loneliness
ounces
sierra
spacesh
clumsy
muhammad
grampa
monopoly
morlocks
bollocks
excalibur
simultaneously
delacroix
suburban
ballplayer
preposterous
powwow
unreasonable
rhythm
shanghai
misdemeanor
eavesdrop
gilded
gorkon
huckleberry
kensington
leeloo
wainwright
wannab
anastasia
dobisch
stearns
lippman
chloe
exquisite
haddonfield
unidentified
marzzone
grotesque
monroe
disallowed
slippery
junebug
crossroads
macaulay
beauharnais
cappuccino
43
56
59
76
81
84
8th
ai
ave
ail
bach
bav
bash
bied
bows
baff
binary
bomber
cp
ching
cull
cates
cens
cuc
cider
crib
ciera
ctu
dm
dj
dome
dic
dus
dup
dye
delly
dazz
doreen
eu
ech
eel
elder
fou
ful
fey
flem
fists
fury
fender
fainted
gav
gents
gender
holog
hittin
hilton
haste
housing
ire
jr
jorge
jorg
kook
kul
kos
kai
kung
kenn
kamins
kiki
ls
lan
latch
louse
lash
lins
liner
lomp
mb
mh
mab
mose
nip
nug
nintend
nilsen
og
ore
ome
pact
pav
pont
poof
pester
pending
pomp
ration
rue
rents
roul
rik
races
sith
sart
sate
sans
sigh
tine
tac
tai
titty
vat
vult
vial
voil
vivid
voted
voting
ww
wink
wuss
wimp
winton
yen
yikes
zu
zh
zer
zin
zow
zap
zebra
zorro
##uder
##tore
##rer
##rates
##rational
##aved
##bus
##bab
##bound
##bbe
##bish
##yman
##yards
##nut
##normal
##iour
##iences
##zis
##zia
##zens
##gado
##pil
##puss
##pired
##sch
##sons
##dick
##mott
##mama
##kis
##cre
##call
##cine
##han
##hall
##hist
##vere
##vation
##vial
##just
##jac
##fell
##fits
##flow
##22
thal
threes
##oure
##inis
##inty
##inals
##onal
##onder
##onzo
toont
##ingham
##oria
##orient
whim
whop
##eny
##enas
ante
itís
##arin
##etting
##etrack
##itness
##aska
inad
inau
inning
inez
inhib
inquire
##reed
##real
##reides
##recy
##uting
##ayed
##ayette
hex
heid
heating
reap
reese
reagan
rewind
whatnot
beery
beyn
beads
mellow
megan
mebbe
hab
hap
haze
dogg
dozens
##stak
##stead
ons
onna
goble
goals
goering
gosp
shm
shook
shush
shitting
##keby
##ali
##alysis
##ima
##imated
##imited
donor
donation
donuts
kneel
liby
lionel
##chi
##chon
noticing
wastin
waski
myr
nos
nov
##ustomed
##ithm
##amine
##enteeth
##eee
##illo
##urf
##urai
##alled
##allister
##outing
necks
nebr
theyre
##ional
soak
socc
getaway
abilities
allie
alliance
outr
outwe
outcast
outburst
asc
shepher
chu
chile
chipp
chino
chlor
suez
prol
prair
prying
##opol
upgr
upriver
atreides
##icies
##icators
##icuddy
##andi
veil
##estro
depl
degr
deja
deleg
##uns
##unes
fren
frantic
herald
heresy
whyn
alot
alison
##ilian
##usal
##usive
##uscript
saig
mann
mank
manages
manray
manhood
managers
manuscript
lobe
loony
logging
usin
pliss
pliers
plastics
##igible
timid
##ulses
##ulnerable
goodies
semen
sections
##osse
##ifact
##ifred
guine
guides
exert
##olism
arent
arbor
arlington
comics
comments
##vene
##venworth
comeback
##aki
splin
spades
spears
talker
bris
brod
brake
twit
##icking
carib
amp
tron
trot
trent
trough
trub
truc
trumbo
clob
clips
leer
lever
leeds
leverage
envelop
enroll
overst
overall
overly
overest
overflow
peed
quid
quittin
drilling
##emont
unin
unim
unner
unpar
moor
bloke
blushing
intruder
##elin
marlowe
marathon
buick
coz
cog
coal
cokes
scab
scagn
scanners
##through
hudd
hullo
##ected
##ffle
evenings
##urek
grin
grunt
greta
nighting
nightfall
nightcap
roaming
newport
joad
jolly
helpmann
nothingness
longing
longfell
lifeline
##acher
rembrand
poetic
##dermott
leavenworth
##assed
##tail
elster
crest
crates
croup
cruz
crashing
crumble
probie
cougar
ade
adoles
adapt
adolph
swap
##pto
mait
maestro
##ossal
miniat
homeboy
lotion
hier
hijack
peru
perj
perch
perfor
uhn
##urnal
acute
monaster
monarch
monitors
badges
fling
faw
##into
handsh
##ordination
careers
##ogast
##ogical
##atha
runners
secrecy
hearse
disl
disad
disorient
##qual
mighta
traff
traitors
womb
minding
seraf
morality
morbid
lacr
##eye
##pring
camelot
schae
schneider
insin
insens
momo
paralysis
worldwide
tonic
bozo
##acle
slop
recy
recre
charitable
contem
contro
contamination
warrants
diab
mattered
commend
committing
##uba
sonar
funk
funky
cheery
cheats
##roc
gloss
sixpack
policies
seeming
finland
accustomed
foundations
trials
trivial
invoke
invaded
invulnerable
composed
##avo
tens
tenant
capone
stuffing
jacked
jackass
jackets
jackpot
farming
endings
pais
cutter
shostak
pickle
##ailing
presently
preserved
fifteenth
countess
countless
countdown
decline
decipher
darien
darwin
breakin
checkbook
prompt
lawford
evasion
##ibal
billi
billing
millimeter
millaney
relat
hitman
skiff
skyn
specially
honors
obi
numb
questionable
##ugal
jeh
passive
##aho
##ahad
##ivated
colour
lighting
explicit
syll
syrup
indication
indisc
delir
delbert
delhi
delgado
factors
incest
inciner
dinners
honeythorn
depinto
watering
watered
watermel
benes
benson
discred
buyin
##apper
retro
sneeze
snooping
forgery
collapsed
##ucon
salute
salzburg
burgers
defence
defended
grandmama
regen
regards
regulation
touchdown
artifact
petting
esk
singh
singles
winners
suspens
alongside
legacy
conclusive
concussion
concannon
##ushova
filters
##soe
samurai
magnes
hangin
uncles
saturn
cleaners
midst
greenteeth
clearer
clearance
profanity
distinction
straightening
refill
refres
ballast
ballistics
##owski
transp
transcript
transsexual
visas
impot
impulsive
impulses
buckle
buckley
##tenfuss
frontier
colds
##riced
keating
felon
centers
squeak
darker
##rament
##ramatic
typing
merk
merci
merrill
mercutio
popping
wales
##coats
fairlane
caul
caves
locking
repet
repell
reprie
repulsive
superiors
disappro
covert
dougl
##fortune
judged
##zza
##zzie
##brook
##bruck
casket
casinos
treaties
stickin
considerable
misfortune
clocks
smarts
burnfield
feat
valued
lords
illinois
lara
stripe
stripped
stripper
irreg
irrational
hopper
solitude
bricks
practices
drunker
garlic
luncheon
rockwell
eyeballs
advantages
publicly
boatman
formality
cataly
##bedded
toronto
communic
cardiff
cardinals
lowe
lowry
camping
niner
digg
digit
greenhouse
fatig
belonging
rollo
prodig
produced
fishin
acceptable
directive
empath
hydra
sanitation
##cutt
healy
macdonald
investigated
esteem
southwest
suggs
equation
wildlife
particulars
deliveries
##ueless
marries
sails
sailors
labs
antig
definitive
##gued
sensed
drawers
yellin
fitness
holmes
claremont
mcdonald
mcallister
mcdermott
blockade
talents
vaccine
ghoul
pinot
pinback
pinched
admirable
sharper
sharpen
credential
fellowship
rubbish
martinis
franco
exceeding
renting
##fucka
slew
looseleaf
baton
batty
batting
collective
panama
melissa
hostess
malt
malaria
sarris
criminally
crackers
janey
oddly
cocked
cockpit
objections
authorize
bala
bodily
bodhi
bellev
agreements
assistants
cooped
archive
archae
generated
projections
niggas
tita
puerto
scarf
speeding
flights
lucille
ugarte
emergencies
satisfying
urges
switches
preference
bonding
olives
rams
angora
##etera
boobs
galahad
volumes
hawthorne
provo
provides
providing
mccay
adamant
freakin
attorneys
wilkins
wilshire
regularly
snowball
salesmen
ethi
galley
gallons
gallows
accessed
mutilated
sneaked
fanucci
josé
sinatra
diseases
punters
kirkeby
##gaard
immoral
immunity
approaches
corrob
buffet
engineered
matin
pairs
witchcraft
expressing
appointments
mentor
logically
cartwright
chapin
chapel
chaperone
silverware
punching
junkies
behaviour
crowds
fiber
pumped
naples
unlimited
floris
##nnnn
surfing
rhym
injunction
safest
confirms
spelling
typically
pillar
whorehouse
primer
eleventh
hypn
rushed
120
##oxide
canceling
entertained
unsure
lesion
experimenting
circumstance
scratching
scratched
bangs
internship
epile
deckard
montoya
insults
influenced
foreigner
cherish
embrace
haydn
deceit
deceive
priorities
diesel
mulholland
reservoir
disgusted
paddle
pizzer
despicable
pours
liberal
librarian
flashes
inventory
bailed
dipshit
wandered
whacking
lobot
kimball
replicators
oskar
ribs
tagged
chinaman
qualifications
avenge
eti
ettore
predator
predicted
deranged
deacon
kuato
vitamins
falsely
conceived
virtucon
pedal
peddle
ragged
wickwire
philosopher
dedicate
gathered
pacif
##namon
buddha
temporal
tassel
tends
tendency
hacked
marching
surgeons
attendance
sacrifices
steaks
sacrament
clifford
scanning
scanner
21st
dyke
##liere
drumlin
intentionally
palmdale
adjusting
adjusted
aiming
bumps
miggs
nikes
nikko
nikolas
puffy
remarkably
patrizia
privileges
chamberlain
aiding
rudolf
wadn
spectrum
academic
paradox
premier
obligations
jennie
oooo
ooooh
rebell
platoon
platinum
scrawny
booty
bidder
##strom
sparks
sparrin
resigned
1967
hitched
wiser
deliberate
increasing
concerts
5000
nanny
coordinate
criticize
greeting
multi
nuwanda
imperative
wraps
shouted
vegetarian
consequence
memorable
memorize
greece
greeks
gramm
tonsils
achieved
lonnie
nomak
skelet
unaware
mythology
sweeping
restraint
colonies
prosecutor
manifested
helmuth
relatively
dalton
gorman
muncie
tsavo
measly
guinan
shoveling
exploitation
corpus
econom
molest
##escu
mocking
penguins
severely
egyptian
toxin
rearr
sketchy
sketches
vaughn
extermin
consumer
retrieve
bondsman
puppeteer
##ffeur
compensation
compensated
carrots
slammed
durden
lenin
lenore
ingenious
worships
brewery
infantry
cursing
sincerely
arabs
fulfilled
fulfilling
kraut
vouched
velocity
frustration
swanney
expanding
baptist
hindus
zeke
##rusted
inhab
guilder
amateurs
polymer
stubbins
purchases
sleepless
immortality
neutralized
rituals
kelson
kelvin
##girl
weeping
coupon
boiler
diagnosis
harassment
metaphor
metaphors
indulge
initiate
spectacle
dismissed
achievement
elden
sodium
ensure
quantico
cramps
georgina
treasures
romulans
specifics
navigation
##court
overheated
advertis
transmitter
brigade
dispatches
acknowled
cinnamon
tumble
evaluation
evaluate
transmissions
electrocuted
hypothetical
manufacture
cortex
yakushova
retainer
burgund
rehabil
rashid
tahiti
styles
demolition
motivation
negligent
negligence
mtv
trumpet
diversion
calculate
contradiction
wudan
sultenfuss
worshipped
hoffy
tyrone
dishonor
bikini
cauld
lagoon
loathe
spacedock
clutch
scoundrel
scoundrels
accusation
accusations
transporter
transporters
insecure
bimbo
rasczak
spontaneous
mayflower
troopers
paramount
glands
obsessive
mcintosh
repeatedly
microch
cotter
siberia
##chmacher
pronounced
tropical
overpriced
johana
swiped
phenomen
disneyland
reflexes
transplant
neglected
electrician
observer
variables
ultimately
duality
dahl
dyslex
##iffel
groovy
newsweek
emphasis
lafayette
sniper
enclosed
mckinley
battalion
obstetrical
masturbation
bryant
bakery
dottie
russell
bridges
triplette
infatuation
purgatory
exceeded
excelsior
argentina
administrator
pyramid
bolshevik
oeuvres
flexible
forsaken
noodle
chauffeur
somerset
hoagie
chevalier
eyewitness
mascara
improvise
franchise
venezuela
cricket
dictionary
jupiter
jethro
kgb
lhasa
mosqu
moustache
pakistan
porsche
szpil
teschmacher
inoperative
neptune
abraham
cheyenne
choosing
worthington
arbogast
calloway
blasphem
proverb
prefers
synag
consigliere
uncommon
sensitivity
therapeutic
cerebral
traumatized
mercenary
telescope
fronkonsteen
mcgillicuddy
incomplete
spaceship
fleming
ireland
jorgensen
kulok
kaminski
lompoc
nintendo
omega
zowie
toontown
inaug
heidi
nebraska
soccer
outweigh
prairie
saigon
plissken
caribbean
scagnetti
longfellow
rembrandt
miniatur
monastery
serafine
insensitive
shostakovich
skynet
suspension
magnesium
douglas
irregular
hydraul
credentials
bellevue
rhymes
szpilman
66
68
71
74
700
95
ald
aver
ary
aus
apt
aint
alder
bing
bere
bau
bick
braid
bork
bens
bung
baza
cc
cds
cotta
dia
dorn
dames
dern
della
density
ether
eich
ester
ehh
ebby
fay
falk
fives
fading
fumes
fowl
gator
geller
hh
hoth
hoof
hints
jp
jor
jee
jive
jib
jug
jello
jumper
jurek
kon
kam
kittle
kool
kamp
kaz
katherine
kettle
koko
litt
lother
lub
latt
lyle
lana
luv
lumber
mook
mish
mash
mio
merv
mode
makers
nes
nast
nada
nifty
ora
ooops
pd
pess
pau
pough
pows
poul
porth
pots
pager
puls
rou
rall
ruck
rach
rav
rating
ringer
rache
rican
roust
sg
sill
tion
tic
tame
titt
tach
tuts
tippi
vu
vere
vort
voss
via
vox
vlad
wu
wong
wider
wanda
wrig
xan
yi
yay
yur
yllo
yanks
zed
zander
zimm
zalt
##lac
##lett
##lier
##oi
##oat
##ught
##tical
##rist
##aan
##aith
##aci
##azy
##acious
##but
##bust
##boo
##bble
##bah
##birth
##bilt
##bishop
##banks
##net
##nna
##nation
##iak
##iates
##iago
##iques
##zio
##zai
##gi
##gf
##gam
##gang
##gling
##groom
##gale
##pan
##pay
##pic
##pike
##dad
##dly
##dish
##mies
##konn
##cas
##ccept
##cular
##cases
##wun
##wig
##witt
##wick
##weal
##western
##wurst
##hl
##hot
##hart
##hma
##hof
##vi
##jor
##jee
##fi
##fir
##fun
##full
##fold
##furt
##16
thump
thaw
youí
##erit
##eroy
##inform
##inburgh
##atus
##ono
##onents
##onne
##anim
##anza
##analy
toons
##orf
##orin
##orious
##orhe
##orius
whoop
whining
whippin
##enous
##esher
anus
anita
##arations
##isl
##eted
##itus
##itud
##itives
##ompress
##omination
##asive
##asco
inade
inquis
##utch
##ayin
##ayas
andr
andre
hein
hewitt
##ereign
weve
mein
hag
hale
hailing
dole
doork
doss
dooms
##lector
##idable
##iddy
##stop
##sticks
##ghan
onion
ish
isla
goo
shi
shill
shri
shite
shud
shines
shaked
shrap
dong
stip
stint
steen
stared
stature
stained
lien
liars
lili
##ceivable
wast
noose
nosy
##irable
##amm
##amie
##among
##amish
withstand
cane
canoe
##ooo
##urg
##alling
##outhing
sob
solem
abol
abide
abnormal
didja
allright
allah
##tered
outright
output
##odel
##rils
asgaard
##heres
##ndown
chas
chir
chol
chills
chimp
chaste
choking
hows
howling
sums
sula
prud
primate
upl
upham
uphold
atone
##icism
##icrous
##andra
##ppas
##pple
##rapin
whos
##estion
deanna
deird
frater
fritz
frogs
herm
hersh
alf
alias
alonzo
##usible
##arten
sauc
saks
sabb
manure
manfred
orton
orgy
##geon
lolly
logged
uss
platter
##iger
##igma
##istical
##ucking
seize
seals
seism
semit
seeds
##osin
##oslov
##ifting
exile
export
arlet
artery
arithm
##atement
comical
##astically
##ende
##endrick
##abor
willy
backtrack
##aky
##akia
meanest
spud
sphin
spitting
spills
conj
conan
conting
converted
talkie
brus
brouss
everytime
mayol
carat
##oused
trout
##apy
aging
agencies
agatha
cler
clam
clash
clover
clueless
leans
fucken
fuckhead
enfor
workout
##felt
overwork
overrated
overpower
pem
peas
afghan
quill
quits
unatt
moj
blues
intra
intensity
##bering
marl
marm
marily
marcel
marguer
bugged
coon
scatter
wonders
undet
undies
hugging
##ffer
evenin
yearbook
##ishes
giveaway
grouch
gretch
grimes
rog
rok
rolex
##actic
longsh
imped
imbal
beforehand
sirens
pleaded
remov
poach
polly
poached
poked
##irez
throb
thrills
kindred
eli
elite
##udel
##izers
cram
crises
cranes
adap
parting
##ptuous
smir
smurf
boycott
mao
mae
maim
shits
minnea
realm
realization
realizing
realistically
hiking
perce
perrier
perverse
perceptive
understatement
monte
flux
flashing
flask
facial
listens
handker
handbook
##oga
##ogy
##ogan
philly
phara
phoning
runt
buss
busboy
disability
trav
trapper
craps
crapper
crazed
motherhood
##mans
##mances
tomm
headline
morally
morons
morrow
lacy
##eyed
##sha
strut
strudel
resolution
resulting
resounding
interru
camels
insul
insured
inscription
wasnt
prohib
parks
paramed
paraly
parlay
parais
parsons
leftovers
booted
##acent
##acola
##mmy
saws
sawyer
slate
slump
slush
slips
slinky
sloppy
weekly
recite
##ignon
appra
diana
divert
dioxide
commiss
sonris
funboy
##plement
huron
##rost
turnpike
brean
glow
glau
glare
sixteenth
businessmen
lively
watcha
watchman
walkie
accents
telem
harmed
harlan
harcourt
harkonn
terrace
payne
ahab
ahem
tripped
tripping
composition
premed
##avier
capri
farley
barons
barric
barging
barrington
barbat
pappas
wonderfully
giul
giov
gibb
holden
holders
shoves
jesuits
##ails
metab
edith
editing
edinburgh
openers
sleepin
restroom
thirteenth
thirtieth
excused
pricks
prizes
standby
decompress
hott
booker
bookkeeper
daring
dared
apache
beauties
breakthrough
figur
evans
billings
mills
relate
skipping
skippy
skrapin
youngsters
eights
sethe
genre
genetically
obit
bedford
bedbugs
graf
graft
gracie
numerous
awa
frankfurt
##uga
simms
jezzie
##azar
confide
confisc
earp
earring
##ertation
##erties
shutters
##iviere
colossal
infinity
##retta
humph
humming
explodes
index
bloodbath
delt
delbruck
shooters
corvis
steamed
geomet
geologists
stark
starvin
starring
starbuck
incur
incons
incoming
detach
detention
firehouse
firepower
expectin
depot
captains
discon
newsstand
##ouche
followers
powerless
lieu
##uctive
snif
strait
messin
robe
robot
saliva
salazar
fuller
sentenced
calib
defy
deficiency
grande
grandad
registry
winding
windthorne
murdering
pets
petro
espress
arrows
curric
wines
winters
winifred
painless
legions
legisl
concorde
##lination
subvers
submar
uncover
louella
raided
propri
properties
richter
midwest
extended
##otechn
refuel
refinery
refusal
balled
balloons
transpar
transaction
visible
impea
imposing
bankroll
destined
landy
##ricide
##ricular
trainee
erad
sellers
oww
nearer
entrap
centre
botherin
jerking
squaw
squares
humanitarian
fremont
tyrell
tybal
viking
fastball
markets
operated
operates
poppy
accidently
fairbanks
respir
cavern
caiman
danvers
maxim
topside
learns
counse
councill
mouthed
##ocate
superb
superc
superv
supervis
kisser
doubles
doubled
##undant
personalities
juda
##zzik
generals
palantine
protects
casa
casy
sticky
##essional
courteous
miscar
misinter
honora
telepr
fezzik
##versial
conniving
swears
lariviere
chickened
##mingham
irving
irwin
shorthand
hops
hopin
solving
##iko
suites
lunches
enjoyment
rocker
rockin
rockets
damien
cables
motors
motels
ticks
tickle
destroys
turd
turks
birthright
wedd
armstrong
acrob
formidable
letterman
##boats
communism
englishman
dai
daik
borne
fearing
icebergs
##enched
##iliation
viola
doubtful
screwball
boxing
sadistic
digs
greenwich
greenhill
boardwalk
dunn
dunois
geeks
vera
belongings
rollin
posts
tempting
modem
modified
acceptance
hyst
hype
hyde
continually
tasting
macy
macaron
casts
cowan
cowards
congreg
suckin
furry
wildman
gardens
philanthrop
calmly
##bius
pardner
priceless
electra
quarre
appearing
physicians
masbath
miriam
laboure
bowel
sensory
pushes
boyfriends
recognizes
seaweed
seagra
divorces
auditor
auditions
audiences
henri
comforting
comforted
codex
pinpoint
credits
rubbing
tighter
expire
moonan
tapest
rental
lament
lamont
sleazy
loosely
traveler
melton
melanch
screamin
northwest
faithfully
malicious
malignant
taxpay
##rophe
grier
griev
browns
browning
conditioner
janiro
organizations
swimmin
dancers
objects
objective
civilizations
blinding
blinded
duquette
##ofessional
berry
assisting
randolph
arche
generations
professors
risked
mixture
titles
licence
licenses
customary
puking
scarce
speedometer
bradley
braddock
rapes
rapids
stanford
poolroom
clientele
originals
santiago
branding
satisfactory
##iatric
urg
urban
commonweal
banzai
ratso
ramada
rosie
combinations
volga
rumours
venza
##heads
##headed
fema
hawks
bugler
drags
bono
bonjour
sundays
raban
wilbur
mutt
developments
gamma
planting
plantation
britons
quarterback
whispers
diseased
msayin
##affe
creams
socialist
buffoon
engineers
celebrated
bummed
separation
scripture
magnitude
quota
quotes
maple
carton
cartoons
janeiro
chaplin
buttercup
carpath
periods
hillside
jabba
rodgers
albatr
blondes
enterprises
florence
pinky
processing
processor
rhian
rhodes
unfaith
confirming
variet
variation
dispose
dispute
disposition
pillows
pilletti
trunks
hypers
whadaya
loaned
briefs
briefed
latent
seducing
choco
wolfgang
coastal
coastguard
nineties
shhhhhh
unsc
unsatisf
acquire
productive
scratches
implore
lorraine
underworld
squadron
boundary
froze
barnard
tempered
haywire
hoops
wyant
psychoanaly
demanded
congressional
negotiator
pornos
theaters
shawn
shaved
##oscope
sweaty
asta
asthma
benefic
bouncy
fags
poured
explanations
escapes
dilig
mumble
shelters
popularity
preaching
constructed
automated
osborne
versa
financially
terminator
confessions
conducting
responded
pursuing
dissent
dissertation
katka
voorhe
brooks
coincid
courageous
##ohl
contains
container
containing
troubling
blasting
outfits
francesca
conceited
settings
virtual
peddling
##cracker
initiation
habitat
achilles
deduction
rifles
tentacles
pleasantville
farts
##knife
cereal
nedry
utmost
exercising
savvy
convene
bridegroom
attendants
kilo
cliffs
complimentary
hanover
individuals
sewers
envoy
railroads
nesting
laundrom
cowardice
puffs
ranks
patriotic
announcing
bowlers
bulb
bulk
deejay
monitored
obligated
profitable
symbols
ilia
##draft
##holders
rebutt
unprep
bootle
glorified
editorial
documentation
limitations
analyze
cube
vicky
slaughterhouse
sparazza
concepts
enormously
paleont
1969
humpbacks
pollution
telegraph
16th
jahn
jaime
omigod
octavius
sovereign
bluffing
strawberries
essay
essentially
rawl
greyhound
lambeau
nyu
injections
weirder
legendary
fogg
wiping
disciple
disciples
leonardo
receptionist
werewolves
sparkling
decorator
dynamics
naval
unaccept
rejection
myths
interrupted
applying
diploma
siwash
sioux
tolerance
sumbitch
sprayed
symptom
##iasm
klingons
nitro
nitrate
nitrogen
tsk
sequel
selected
selectman
wrestler
exploiting
drafted
observations
jayne
jellybean
molested
sofie
guiding
mocky
granny
traumatic
prostitutes
inconceivable
survivor
fidelity
gypsy
nichol
##nowitz
carolina
bambi
dublin
lancelot
orphans
plumbers
exterior
queers
annoyed
jacobi
##immel
crowns
smugglers
eduardo
accomplishments
unexpectedly
czechoslov
durin
fuchs
ingenue
reassure
shapiro
brewer
multipl
perpetrator
cassius
##polis
nostrils
frustrating
##izzard
penetrated
feathers
baptism
caterer
catering
jawohl
inhuman
windsor
bunks
insights
diagnosed
harassing
metaphas
brazilian
indulgent
convicts
erection
crunching
elementary
memoirs
treasurer
constitutional
volunteers
insects
manifesto
bouquet
tangled
vaguely
##ravitch
bruise
roasted
emilio
crucify
superheroes
anticipated
titanium
##aaaaaaaaaaaaaaaa
kobo
ludwig
ludicrous
satchel
tucked
enlightened
unwilling
waldman
craziness
presumed
presumptuous
evacuated
patronizing
impersonating
verdell
mathematical
patriotism
nudity
stimulate
overdue
insomn
jeopardy
jeopardize
lizardo
mildred
pulitzer
dooley
stylish
wholesaler
motivated
cavalier
compassionate
asteroids
coyotes
ostrich
pensacola
##broken
theoretical
##keeping
##keepsie
allegations
allegiance
unprofessional
embezzle
morrissey
interpretation
calculations
extraction
contradict
estimating
maneuvering
overwhelmed
kryptonite
hazardous
cunningham
ducts
pancakes
ruler
renaissance
vocal
vocab
arsonist
laxative
compartments
indoors
ambushed
challenges
birdy
birmingham
fertilizer
revelation
pharmac
prejudice
prejudiced
absorb
squirrel
hypnotized
insecurity
fiancée
squeamish
forensic
forensics
plaque
plausible
offspring
mayflowers
newcomer
eloquent
crockett
parameters
appeals
muskie
mcintire
synthetic
klein
nauseous
valdes
vanderbilt
meadow
bloated
handicap
handicapped
dissect
trilithium
babysitter
snotty
bleeker
grifter
grifters
sarcasm
videotap
videotape
fundamentally
tranquilizer
bixby
rimgale
riviera
stuttering
lovett
##iguration
moebius
disarmament
intervals
christsake
evidently
bullshitting
indigenous
belgian
squeezed
marshmallow
hemorrhaging
crocodile
accommodate
ceti
dandy
dulaney
pixilated
##zsche
chandler
blazing
adonis
stratford
recluse
hungarians
refugees
roadblock
bleachers
mcgruder
massacre
puzzles
embezzling
overreacting
bawling
norrington
patel
pankot
sizemore
xenia
yvonne
zimmermann
rewrite
chelsea
sugai
atheist
bypass
scourge
cradle
serpent
obedience
sublime
prophet
extradition
condescending
lyndon
projectionist
applicant
kremlin
astonishing
henslowe
icky
lathrop
nourishment
nietzsche
zurich
nocturnal
canvas
plunge
carcin
trophy
insubordination
sonuvabitch
elektra
burrito
deformed
transfusion
superficial
melodramatic
cylinder
hillbilly
fingertips
improving
sophomore
picasso
deductible
grasshoppers
cocksuckers
inexperienced
epidemic
eavesdropping
biederman
cpu
cucamong
kosher
mbwun
mhravitch
mabel
nugent
roulette
sartorius
zuul
zinnowitz
beynon
libyan
shepherd
trubshaw
trucoat
clobber
nightingale
croupier
performances
handshake
lacrosse
schaefer
insinuating
controversial
paisley
relativity
discredit
refreshing
transponder
impotent
reprieve
catalyst
ethiopia
pizzeria
etiquette
sacramento
grammoo
advertisement
acknowledged
cauldron
blasphemy
aryan
bensinger
cottage
oracle
pessim
poughkeepsie
porthos
rallies
sgt
wrigley
zaltar
##itudes
doorknob
doomsday
shakedown
shrapnel
deirdre
sabbath
arletta
arithmetic
sphinx
broussard
overworked
marilyn
marguerite
gretchen
removal
minneapolis
handkerchief
pharaoh
interruption
paraiso
sonrisa
barbatus
giovann
skrapinov
espresso
curriculum
transparent
entrapment
tybalt
councillor
misinterpret
macaroni
seagrave
auditorium
commonwealth
albatross
unfaithful
voorhees
rebuttal
unprepared
cucamonga
0h
03
39
37
3rd
53
58
61
8a
89
96
94
agh
aide
aph
acker
ache
aquar
bil
bong
bact
bac
bids
bikes
cul
cody
coney
cakes
cope
cnn
dl
dale
dya
eiffel
fad
fain
fatt
faked
fenny
fades
faded
fisk
fancies
gould
gert
gaps
gills
gingham
hasty
hedge
ight
iram
igu
iggy
ipo
jd
jad
jank
jaws
jolt
kut
kell
kol
kang
kins
kike
kru
komm
krie
korda
lum
lint
lakes
lars
laps
lenn
lending
lapsed
lutz
mes
mound
mord
muth
moul
mik
mung
mitz
mashed
mouthing
nou
ner
nir
nab
nlf
nath
nero
nano
naming
oat
ove
ogg
ollie
pes
pse
pum
pett
piers
rin
ritz
rugs
sra
sard
sade
sno
sne
satt
sss
tir
tant
tate
tary
tash
tamp
tilt
tainted
tumbling
uri
vr
ved
vich
viny
vcr
vidal
vested
vandal
watt
wards
wunder
witted
xero
xavier
yor
yow
yar
yore
yum
yummy
yugos
yadda
zy
zat
zere
zee
zipp
zones
zapped
zorg
zeus
zeph
##lest
##long
##liness
##lair
##lower
##lits
##laughter
##lishing
##lasses
##oise
##ozo
##uus
##uper
##uza
##uously
##rh
##ruck
##riss
##rock
##rope
##rude
##riment
##riman
##bu
##bot
##bas
##bod
##bine
##bour
##bred
##bug
##beth
##bread
##bago
##build
##year
##nc
##nant
##num
##nals
##number
##zh
##zac
##znick
##game
##gren
##gically
##guff
##pta
##pings
##dam
##done
##dies
##dens
##dler
##mill
##mand
##mie
##miss
##mph
##matic
##moral
##migod
##morda
##kk
##kie
##kick
##kok
##cans
##cett
##cape
##cats
##comb
##cano
##corp
##wan
##with
##wife
##weds
##witty
##wait
##hose
##hbert
##harm
##vine
##vantage
##jorn
##jane
##jama
##fy
##fax
##faced
##58
##70
##ón
tha
thad
thug
youll
##inet
##inch
##iners
##inci
##atum
##atile
##onin
##onov
##anide
tole
tock
toaster
##ingson
##lll
##llip
##oration
##ority
whar
whims
##enk
##enh
anto
##arz
##arcer
##areness
##isine
##eting
##otle
##itant
##itri
inmates
inigo
##rect
##repr
##regn
##vell
##veau
##uter
##utton
hectic
reop
reiss
reyn
rewards
rechar
bew
beak
wept
webs
meld
hagen
halt
dogged
doggy
dovey
doggie
##lege
##idy
##stant
##start
##strel
ongoing
isley
goon
gogh
goosed
gopher
goetz
golits
shal
shea
shuck
shamp
shrew
shiver
shreck
shaky
##alin
##aloo
forfe
##imitar
donowitz
stings
stale
staged
staked
stung
stipe
stunning
stokes
liv
libert
libel
knowed
##chal
##chment
##chio
nother
notify
notorious
##aders
##adio
myri
mydick
nod
nobel
nova
##irting
##antis
##antics
##antha
##ente
##entious
##eemed
withhold
canal
canisters
##illin
##illas
##ooly
##ooey
buts
butth
neal
neander
##ione
soaking
sopr
getcha
abby
abys
abrams
abetting
outlet
outbreak
outnumber
outdone
##inkled
##riers
##riage
##rigal
##nde
##eacher
sheer
chit
chut
chig
chilly
chester
chigur
howls
suing
sully
sult
prow
printing
pranks
prisons
##oping
##opes
##ophers
##ryption
anyroad
##icer
##icament
##ellar
##andez
##iem
vector
veidt
dex
dept
deci
deport
dehyd
frisco
fringe
frisk
herod
herring
alo
alp
alum
alignment
##ilight
everest
##usov
saver
saud
##ivey
manch
manning
manny
manually
orn
ors
orth
orte
##geese
tellers
looney
loew
loco
lollip
##arded
users
plight
##igation
##igure
##istible
##istrib
ohmigod
timothy
##ulu
##ulary
##ulative
goody
goodwill
seated
segment
##osy
##osals
gummy
##olving
##olite
##olences
arty
arise
argo
comfy
fromber
##endo
##abag
wills
##ounded
backl
backdraft
##obi
##obes
##obic
##naw
spo
spree
speng
sparing
spleen
spivey
conned
conception
lettin
##ourin
##ourse
##umby
talkative
hades
bran
bret
brood
brushing
brimmer
bronson
brumby
everythin
twenny
twilight
offed
offland
cary
carpe
amos
trend
trud
trillion
agn
##otherapy
clout
clich
clipp
clerg
clicks
clavius
lem
enters
happend
##ortions
##beard
##belie
##beats
overh
overjoy
pew
pecker
pember
downs
quas
quiz
unra
unqu
unions
uneth
unann
unru
unka
unmark
mooney
moaning
bytes
blum
blister
blush
##acell
mull
muld
muley
intake
intro
##berish
##berger
##elt
##elaces
maru
marr
mara
marches
marjor
buding
buggin
coffe
covet
##agus
sciss
scud
scoring
scimitar
##issen
##reated
undis
unders
huff
hellhole
hellfire
underhill
wright
wrath
sorcer
sorority
grues
gritty
groves
roc
roam
roster
roeder
jokers
helpin
##ipated
imf
imitation
findley
lifeboat
##achi
muster
pleading
putty
reman
remed
##pled
##plug
embedded
leaky
thru
thrott
thresh
kinder
kinderg
elk
elroy
eligible
##udo
cret
crust
crud
croon
crotch
aden
advers
adcox
swenson
##oodles
partying
smudge
##gett
hocker
macc
maura
miners
minstrel
realtor
homey
hiv
hippy
pertain
perks
pervers
##vedere
understan
aces
acre
acula
acrost
mona
monet
monuments
missions
flake
floss
flores
flashed
flares
flirting
assert
faust
##cio
supposin
playground
playback
startle
##ogne
##ogens
##ogram
##ogues
phr
pham
phoe
buses
##ondo
##ondition
disas
disast
ida
idol
idaho
##quist
##quiat
stuart
deadbeats
tract
trappers
##taine
crain
crabb
##manship
tomah
housekeeping
headmaster
headlights
morg
moran
morse
lair
launce
##shr
##sheet
##anson
reson
resists
interst
interstate
schof
schooly
insure
insurre
proc
parl
parap
paratr
pretzel
pretentious
boca
boiled
##acomb
slink
slum
slang
slope
slither
slaps
slander
slices
slapping
yaw
recap
recomb
recipe
charade
charmed
charities
charnier
contents
appropri
wary
dialed
diabet
commies
commode
commute
commotion
whichever
##rovert
turnover
breck
breached
glowing
poles
polack
personals
attire
fined
finals
financed
watchit
accum
fambly
##ggle
bested
harley
harriman
triang
invinci
compact
composite
compulsion
compieg
designing
##xton
caper
capra
capability
capabilities
capulet
jacks
surreal
sitcom
farrell
schooling
endured
barb
barman
seniors
paved
cuthbert
##ultz
giang
##anco
shoved
shoelaces
jesuit
babylon
prescribe
edges
edvard
childbirth
damnation
##lings
dolly
thirties
christians
christoph
christopher
decade
decode
deciding
halford
apric
gunning
gunnel
figment
figaro
secondly
lawman
evade
##pec
relocated
skid
skag
seti
obregon
complication
complicate
bedev
bedsoe
grabbing
aww
awards
awareness
##otti
##ugnant
jeze
##azin
##azine
##azzo
confine
conform
confuses
configuration
heartbroken
passin
passages
passkey
earning
earnings
murman
shutup
airs
airk
airstri
colt
cologne
doorbell
lightly
lightweight
lightyear
braver
bragg
brained
explored
sykes
indicated
indeter
induced
indiffer
dreamin
consort
consulate
consulting
delin
delaw
hunts
madrid
madrigal
pullin
coral
stein
steals
faction
sender
sendin
speaker
##nebago
blacked
blackheart
incarcer
detest
engraved
firewood
firearms
sidekick
truthful
truthfully
discrimin
buyers
##apple
sexist
retiring
snatched
forgave
strap
collision
collabor
admits
messina
salts
papal
budge
fellah
burma
burbank
lateral
calam
calriss
defined
defender
defenses
deflector
whitey
whitefoot
jimbo
windex
artem
espar
droppings
sweets
curb
curry
singin
winnebago
fallout
legion
concur
redundant
redistrib
samantha
subter
beatnik
bobbie
uncanny
uncondition
satire
raf
raisin
musl
proportion
belch
belvedere
##umbles
grego
greased
extend
extras
extinction
classmates
studios
distaste
distrust
refined
ballgame
medall
medals
impolite
bankers
colder
##rical
kev
owning
owens
specialists
mistook
rundown
informants
psychos
psychologically
felton
entrusted
entrepr
maryland
catchin
jerky
freeman
hospitable
typh
vien
merde
imagery
imaginary
operatives
poppa
popeye
tote
condolences
wallop
beseech
lockdown
exceptions
repugnant
mouthful
##ocam
##ocation
##ocrat
michel
quickie
disapprove
puritan
##ounge
costing
judicial
posing
palate
palaces
protector
cashing
casbah
pressuring
considerably
considerations
virge
bask
basquiat
misle
misgu
misfits
investing
feur
feud
demer
cryo
sidelines
sidetrack
growed
##maids
upsets
strick
kickin
iran
irth
soldado
hopping
packet
suitor
drunks
##nese
garc
garter
garters
unclear
enjoys
enjoyable
rocking
quitter
eyebr
cabot
cabana
cabbage
motions
busts
destroyer
footprint
sherm
trucker
trucking
breathin
turley
turtles
bathed
denies
denny
closure
governments
fedex
formica
cataton
catacomb
devour
devote
devotion
arresting
ellingson
torches
cardinal
cardenas
detectors
190
19th
daitz
icey
icebox
carlson
appreciates
woodwork
violently
screwdriver
boxers
nina
ninja
digger
jails
boarded
visitation
romans
peacefully
ceased
dungeon
dunwitty
verified
vermin
veridian
stealth
rollers
rolltop
camille
opposing
opponent
germ
##iterate
impressions
splits
splashing
module
moderate
accepts
connecting
hym
hygi
continuum
fills
macguff
requis
southgl
amaze
equity
equations
equival
settin
particle
preparations
fielding
philharm
addresses
threatens
cello
correl
electrom
colorado
appearances
heavenly
hooking
gaspar
physic
labour
antar
tracker
trackers
bowman
sensing
sensation
terrence
potent
potentially
potaters
recognizing
extracur
holed
holier
holster
rounding
##bbs
washroom
datura
clarissa
clarinet
commanding
commanded
earliest
raines
raincoat
civic
depended
pinea
trickery
admiring
admiration
sharon
##cyte
tarz
tarant
politically
##ographs
rubs
tighten
tapert
francie
auton
cupboard
dorsey
lamagra
leech
ports
portray
ideals
viewer
viewing
viewers
##laim
skinner
skinned
collectors
piled
melting
decisive
yahoo
##rops
bearer
brownie
jani
janus
heavyweight
climbs
swimmer
supported
routes
receiver
recepta
embarassing
authorization
baloney
balint
balmoral
repro
duly
bellies
bellmoth
agreeable
berger
matching
committees
archives
titus
roberto
successor
speechless
puget
scarin
scarred
laurent
warmth
lindgren
treehorn
martyr
lucrative
softly
scrunch
crawls
precog
rapture
pathologist
cornered
motherfuckin
virginal
familiarity
airports
ratio
ramsey
ramón
sundown
swept
gangsters
angrier
cypher
cyanide
grader
rosy
booger
volcano
venom
venison
complained
forecl
provoking
designated
mcclus
mcconn
hamburgers
statistics
rabin
touring
tournam
wilma
wilfred
jacu
snowing
snowman
weights
muther
wisely
accordance
sneaky
fanatic
fanelli
stormy
revlon
revolt
shrunk
exec
puny
patterson
reacting
kirby
186
corral
corrado
bumper
bummer
nicola
villages
villagers
choppers
skylight
expressly
executives
unholy
telephones
##genstein
depressive
nutcase
nutshell
hilda
cubs
tipto
wetter
chapman
chapters
representatives
##boni
thyself
punchy
targeting
defenseless
fiasco
napal
persian
renoir
vulcans
faber
mortg
peeing
peeking
##monary
shapeley
guarantees
155
##mmmmm
pianist
pianos
behavioral
mathew
dumpt
sedation
spreads
improper
1200
chatting
pierced
tongues
tabs
taber
##aaaaa
nineteenth
siege
siegf
##cloth
##forward
unsp
occurrence
beauregard
lizards
antique
bangkok
gigantic
giggle
gigolo
implants
implicate
implanted
epic
lorenson
montague
photographic
cynicism
embry
assumption
temperatures
hayse
hooper
rewarded
deceiving
bravely
negotiable
mulvan
rescind
gears
widows
##risy
stretching
astr
astute
hobbies
mattie
padding
borderline
bartending
frau
liberace
inventor
dilithium
toilets
whacko
drowns
intends
cadets
pitches
##deus
educational
nationals
osc
confessing
determination
accomplice
horrid
ribbons
affects
adjacent
purser
buns
bungh
dissatisf
lacks
candied
predicament
barrytown
deact
hesitated
lunar
vitelli
crushes
flattery
wednesdays
nathanael
##ebag
conceivable
virtues
##crack
philosophers
tubbs
clinics
individually
tasker
hackers
wormhole
marched
vessels
rotation
beefy
neatly
atlantis
exercises
cruelty
reconc
oakwood
attendant
carpentry
challenger
cobra
kinship
mantua
racquet
alteration
scanlon
flags
flagged
occupational
215
dyed
dyson
ultra
mechanics
stiffs
intentional
grossman
proceedings
salvador
adjustments
hoods
alienate
sewed
captive
hauled
structural
tribute
tribuus
establishing
lifetimes
alternatives
industries
patriots
announced
formerly
biology
bulgar
deem
frivol
waitresses
specifications
symbolic
jenzen
tattler
tattagl
##veston
rebuild
unpack
schemes
democrat
analytical
cuisine
vintage
sprung
surroundings
harboring
trippin
columns
1960
hitching
orchard
polls
schwarz
concerto
subscribe
valentino
bogan
bogart
bogyman
omaha
##crity
##cratic
sabu
functional
landscape
technicality
frequently
frequencies
waltz
exceptionally
gillette
assembled
summon
summit
coronation
fondness
hutu
sinclair
ingles
stallion
scouting
persuaded
mandatory
nomination
unacc
neuro
neurosis
intimately
intimacy
cranky
interrogated
restrain
maintained
wickedness
egos
tolerant
anchors
israelis
stunts
writin
writings
explorers
exploration
kristina
revealing
dictator
klingman
nitwit
measured
##eeeeee
praised
exaggerated
wrestle
wrestled
grocer
exploited
sync
observant
observatory
mongol
reinstated
outlaws
granma
granville
crusades
##whati
1972
1971
idealism
idealistic
whitew
socked
brushes
caroline
possessions
blackmailer
concluded
mushy
odette
odessa
##bags
selznick
contribute
skillful
riddled
turkle
broadcasting
rehearsing
ichiro
riots
sicilian
tramps
smuggle
commodore
repaired
historian
fantasize
sabotaged
matthews
pencils
reassigned
reassignment
capitan
translation
translated
aracht
cassandra
lamps
pods
havoc
nostal
gullible
gulliver
bronze
1980
1984
scumbags
inhale
abduction
outsider
scholars
drifted
hallucination
bunker
biocyte
dreary
intensely
cocoon
diagnost
simplicity
indulgence
1952
disgraceful
fiends
gazelle
lysine
ponds
rooster
vagina
maneuvers
ensign
underestimated
slacking
sylvie
robberies
reformed
boosted
navigate
navigator
tango
tangiers
##ihan
manipulate
manipulated
spanking
flaunt
confronted
depths
1995
1945
sufficiently
scenarios
tibetan
3000
cinch
jasmine
spooning
brassiere
twenties
eliminated
flavors
craziest
thermal
hypothetically
dimensional
motorcycles
lanterns
manufactured
manufacturer
baines
bienstock
henderson
nudie
ratted
rattling
exorcist
uneasy
smeared
##ogenic
highlands
highlander
irresistible
irritate
feminist
immigrant
counterfeiting
ulcer
ulcers
antonio
shagging
scalped
funnier
comprehension
demolished
obscure
oriental
orientation
unlocked
fragments
vincenzo
overlooked
enthusiasm
coyote
hinkle
zombies
screens
emerge
welshman
hypocrisy
accelerate
fibers
lumps
sumpter
hoffman
intercepted
glamorous
endangered
distribut
squatting
vengeful
dishonest
hollerin
flaemmchen
categories
akron
clemency
dreyer
fertile
hormone
hormones
wanders
##ranean
meyerling
stitches
##alleled
unloaded
undertaken
resurrect
metropolitan
colombo
inflation
behaved
squirrels
tormenting
botany
munchkin
nipple
oooooh
tinkering
##101
heineken
stooge
manslaughter
newcomers
flunked
discharged
deserter
incorpor
incorrect
disclose
artificially
cici
celest
keri
oyster
pimps
pansies
siberian
vanderhof
meadows
shabbas
guerr
arrakis
spicoli
oversight
blooming
newlyweds
dissection
untouchables
awwww
infiltrating
electrified
sarcastic
variations
cheerleader
prosperous
##ebrae
tranquil
dwarfs
bixler
gatling
keefe
oberfeld
pestil
stutter
trespass
trespassing
intervention
inserted
christsakes
consistent
distinguished
mediocre
mediocrity
rupture
ruptured
freighter
cremated
grieve
grieving
crocodiles
fernando
kwan
oasisburg
pioneer
rapport
voters
aristotle
aristocrat
unbear
bubbles
persecut
desecration
espion
subdued
musketeers
annihilation
erratic
ernest
mobilize
merchandise
merchandising
gelatin
hulk
rolfe
xk101
##lichman
##lavia
reeks
ligourin
sunglasses
defective
exhilar
spunky
twinkies
peerless
flintstone
proximity
sluggish
passwords
imaginative
positronic
catastrophe
alexandria
berthier
acquisition
pantyhose
aggravation
luciano
cautiously
borders
nylons
paternity
hepburn
stardust
staggering
chubby
demented
arbitr
quellek
mundt
intolerable
lifeforms
elitist
swarthout
lacerations
insolent
proceeding
metallic
filmmaker
uncontroll
impostor
affliction
norwegian
oppression
puncture
ottos
tabloids
athlete
gynecologist
lazarus
rooftop
accompanying
raspail
schizophrenic
wannabes
bavmorda
cullum
gavin
hologram
kooky
kenneth
lsd
ogre
pestering
riker
taiwan
vultures
voila
yengeese
thalaron
gospel
prolong
frenzy
guineas
brodsky
envelopes
unparalleled
moorings
maitre
perjury
fawcett
disadvantage
diabetic
billiards
delirious
watermelon
repellent
disapproval
communicator
fatigued
prodigy
antigua
rebellion
skeletons
economics
burgundy
microchips
phenomenon
inaugural
bazaar
hothead
poultry
ruckus
tutsi
vortex
##busters
##animous
inadequate
dossier
solemn
fratern
manfredi
clerks
cloverleaf
grouchy
longshanks
impediment
imbalance
throbbing
travesty
paramedics
paralyzed
giulia
gibbons
confiscated
starbucks
detachment
subversive
submarine
proprietor
miscarriage
weddings
tapestries
urgently
coincidences
laundromat
rawlston
unacceptable
czechoslovakia
metaphasic
embezzlement
vocabulary
videotapes
clobbered
giovanni
ackerman
aquarium
fennyman
gertrude
jankis
kutusov
kruger
kommand
krieger
lennon
mutha
mitzv
sattler
vinyl
vandalism
xerox
yugoslavia
zephram
thaddeus
reynard
golitsyn
shalom
shampoo
myriad
neanderth
abyss
chigurh
saudi
ortega
fromberge
spengler
trudell
overjoyed
pemberton
unethical
unannounced
unruly
unmarked
budington
scissors
gruesome
throttle
threshold
kindergarten
phoebe
tomahawk
launcelot
schofield
schoolyard
insurrection
diabetes
invincible
compiegne
jezebel
indeterminate
delaware
incarceration
calrissian
esparza
gregoire
distasteful
entreprene
misguided
sidetracked
catacombs
hygiene
southglen
equivalent
philharmonic
gasparilla
extracurricular
mcconnell
siegfried
mulvaney
tattaglia
